{
  "version": "1.0",
  "truncation": null,
  "padding": null,
  "added_tokens": [
    {
      "id": 0,
      "content": "[UNK]",
      "single_word": false,
      "lstrip": false,
      "rstrip": false,
      "normalized": false,
      "special": true
    },
    {
      "id": 1,
      "content": "[CLS]",
      "single_word": false,
      "lstrip": false,
      "rstrip": false,
      "normalized": false,
      "special": true
    },
    {
      "id": 2,
      "content": "[SEP]",
      "single_word": false,
      "lstrip": false,
      "rstrip": false,
      "normalized": false,
      "special": true
    },
    {
      "id": 3,
      "content": "[PAD]",
      "single_word": false,
      "lstrip": false,
      "rstrip": false,
      "normalized": false,
      "special": true
    },
    {
      "id": 4,
      "content": "[MASK]",
      "single_word": false,
      "lstrip": false,
      "rstrip": false,
      "normalized": false,
      "special": true
    }
  ],
  "normalizer": null,
  "pre_tokenizer": {
    "type": "ByteLevel",
    "add_prefix_space": true,
    "trim_offsets": true,
    "use_regex": true
  },
  "post_processor": null,
  "decoder": null,
  "model": {
    "type": "BPE",
    "dropout": null,
    "unk_token": "[UNK]",
    "continuing_subword_prefix": null,
    "end_of_word_suffix": null,
    "fuse_unk": false,
    "byte_fallback": false,
    "ignore_merges": false,
    "vocab": {
      "[UNK]": 0,
      "[CLS]": 1,
      "[SEP]": 2,
      "[PAD]": 3,
      "[MASK]": 4,
      "!": 5,
      "\"": 6,
      "#": 7,
      "&": 8,
      "'": 9,
      "(": 10,
      ")": 11,
      "*": 12,
      ",": 13,
      "-": 14,
      ".": 15,
      "/": 16,
      "0": 17,
      "1": 18,
      "2": 19,
      "3": 20,
      "4": 21,
      "5": 22,
      "6": 23,
      "7": 24,
      "8": 25,
      "9": 26,
      ":": 27,
      ";": 28,
      "?": 29,
      "A": 30,
      "B": 31,
      "C": 32,
      "D": 33,
      "E": 34,
      "F": 35,
      "G": 36,
      "H": 37,
      "I": 38,
      "J": 39,
      "K": 40,
      "L": 41,
      "M": 42,
      "N": 43,
      "O": 44,
      "P": 45,
      "Q": 46,
      "R": 47,
      "S": 48,
      "T": 49,
      "U": 50,
      "V": 51,
      "W": 52,
      "X": 53,
      "Y": 54,
      "Z": 55,
      "[": 56,
      "]": 57,
      "_": 58,
      "a": 59,
      "b": 60,
      "c": 61,
      "d": 62,
      "e": 63,
      "f": 64,
      "g": 65,
      "h": 66,
      "i": 67,
      "j": 68,
      "k": 69,
      "l": 70,
      "m": 71,
      "n": 72,
      "o": 73,
      "p": 74,
      "q": 75,
      "r": 76,
      "s": 77,
      "t": 78,
      "u": 79,
      "v": 80,
      "w": 81,
      "x": 82,
      "y": 83,
      "z": 84,
      "|": 85,
      "}": 86,
      "¡": 87,
      "¢": 88,
      "£": 89,
      "¤": 90,
      "¦": 91,
      "§": 92,
      "¨": 93,
      "©": 94,
      "ª": 95,
      "«": 96,
      "¬": 97,
      "®": 98,
      "¯": 99,
      "°": 100,
      "±": 101,
      "²": 102,
      "³": 103,
      "´": 104,
      "µ": 105,
      "¶": 106,
      "·": 107,
      "¸": 108,
      "¹": 109,
      "º": 110,
      "»": 111,
      "¼": 112,
      "½": 113,
      "¾": 114,
      "¿": 115,
      "Â": 116,
      "Ã": 117,
      "Å": 118,
      "Ë": 119,
      "Î": 120,
      "Ï": 121,
      "á": 122,
      "â": 123,
      "Ċ": 124,
      "Ġ": 125,
      "Ģ": 126,
      "ģ": 127,
      "Ĥ": 128,
      "ĥ": 129,
      "Ħ": 130,
      "ħ": 131,
      "Ĩ": 132,
      "ĩ": 133,
      "Ī": 134,
      "ī": 135,
      "Ĭ": 136,
      "ĭ": 137,
      "Į": 138,
      "į": 139,
      "İ": 140,
      "ı": 141,
      "Ĳ": 142,
      "ĳ": 143,
      "Ĵ": 144,
      "ĵ": 145,
      "Ķ": 146,
      "ĸ": 147,
      "Ĺ": 148,
      "ĺ": 149,
      "Ļ": 150,
      "ľ": 151,
      "Ŀ": 152,
      "ł": 153,
      "Ń": 154,
      "Ġt": 155,
      "he": 156,
      "ĠĠ": 157,
      "Ġa": 158,
      "in": 159,
      "Ġs": 160,
      "Ġthe": 161,
      "re": 162,
      "Ġo": 163,
      "Ġw": 164,
      "nd": 165,
      "er": 166,
      "ha": 167,
      "Ġb": 168,
      "Ġf": 169,
      "is": 170,
      "Ġm": 171,
      "ĠĊ": 172,
      "ou": 173,
      "it": 174,
      "es": 175,
      "or": 176,
      "Ġof": 177,
      "ĠĠĠĠ": 178,
      "ll": 179,
      "on": 180,
      "en": 181,
      "Ġl": 182,
      "Ġc": 183,
      "ed": 184,
      "ing": 185,
      "ar": 186,
      "Ġp": 187,
      "ĠT": 188,
      "Ġd": 189,
      "Ġto": 190,
      "Ġand": 191,
      "an": 192,
      "ĠA": 193,
      "Ġin": 194,
      "at": 195,
      "Ġn": 196,
      "Ġth": 197,
      "om": 198,
      "hat": 199,
      "Ġh": 200,
      "st": 201,
      "Ġhe": 202,
      "ĠI": 203,
      "ow": 204,
      "ĠĠĠ": 205,
      "le": 206,
      "gh": 207,
      "--": 208,
      "ve": 209,
      "Ġg": 210,
      "Ġe": 211,
      "ic": 212,
      "se": 213,
      "ot": 214,
      "ĠW": 215,
      "ĠS": 216,
      "et": 217,
      "ut": 218,
      "ld": 219,
      "ir": 220,
      "ay": 221,
      "Ġbe": 222,
      "Ġha": 223,
      "as": 224,
      "ght": 225,
      "Ġthat": 226,
      "Ġ\"": 227,
      "ce": 228,
      "ri": 229,
      "Ġwh": 230,
      "'s": 231,
      "al": 232,
      "ith": 233,
      "ur": 234,
      "ĠB": 235,
      "ĠAnd": 236,
      "ly": 237,
      "ĠThe": 238,
      "Ġ_": 239,
      "ĠO": 240,
      "im": 241,
      "ra": 242,
      "Ġst": 243,
      "ch": 244,
      "ent": 245,
      "ion": 246,
      "Ġon": 247,
      "ĠH": 248,
      "id": 249,
      "Ġis": 250,
      "ĠM": 251,
      "Ġli": 252,
      "ver": 253,
      "ĠF": 254,
      "ro": 255,
      "us": 256,
      "ad": 257,
      "Ġre": 258,
      "Ġfor": 259,
      "am": 260,
      "Ġit": 261,
      "Ġy": 262,
      "ĠL": 263,
      "ke": 264,
      "Ġwith": 265,
      "Ġas": 266,
      "ĠC": 267,
      "Ġwe": 268,
      "ĠĠĠĠĠĠĠĠ": 269,
      "ill": 270,
      "Ġhis": 271,
      "un": 272,
      "oo": 273,
      "Ġde": 274,
      "Ġall": 275,
      "rom": 276,
      "Ġnot": 277,
      "ain": 278,
      "ĠP": 279,
      "Ġ[": 280,
      "Ġme": 281,
      "th": 282,
      "ore": 283,
      "ich": 284,
      "il": 285,
      "ea": 286,
      "ct": 287,
      "Ġyou": 288,
      "Ġmy": 289,
      "Ġher": 290,
      "her": 291,
      "ome": 292,
      "ight": 293,
      "est": 294,
      "ould": 295,
      "Ġso": 296,
      "ess": 297,
      "Ġv": 298,
      "âĢ": 299,
      "hen": 300,
      "ĠN": 301,
      "ers": 302,
      "ĠD": 303,
      "Ġse": 304,
      "ove": 305,
      "Ġby": 306,
      "ose": 307,
      "ĠE": 308,
      "Ġfrom": 309,
      "Ġsh": 310,
      "Ġr": 311,
      "ven": 312,
      "Ġan": 313,
      "Ġwas": 314,
      "Ġsu": 315,
      "ast": 316,
      "all": 317,
      "ge": 318,
      "Ġsp": 319,
      "and": 320,
      "art": 321,
      "if": 322,
      "ul": 323,
      "Ġat": 324,
      "Ġ1": 325,
      "Ġthis": 326,
      "ong": 327,
      "ĠR": 328,
      "Ġu": 329,
      "Ġor": 330,
      "ĠTh": 331,
      "em": 332,
      "Ġne": 333,
      "res": 334,
      "ĠWh": 335,
      "Ġwhich": 336,
      "ĠG": 337,
      "qu": 338,
      "Ġthou": 339,
      "Ġtheir": 340,
      "ine": 341,
      "Ġbut": 342,
      "um": 343,
      "ound": 344,
      "Ġk": 345,
      "el": 346,
      "our": 347,
      "red": 348,
      "ck": 349,
      "ant": 350,
      "Ġbl": 351,
      "Ġwor": 352,
      "ep": 353,
      "Ġsha": 354,
      "ous": 355,
      "ear": 356,
      "ind": 357,
      "pp": 358,
      "Ġhave": 359,
      "ust": 360,
      "ter": 361,
      "ell": 362,
      "op": 363,
      "Ġare": 364,
      "ĠTo": 365,
      "han": 366,
      "ie": 367,
      "ol": 368,
      "reat": 369,
      "Ġfl": 370,
      "here": 371,
      "one": 372,
      "ure": 373,
      "ile": 374,
      "os": 375,
      "Ġhim": 376,
      "Ġthey": 377,
      ".\"": 378,
      "ist": 379,
      "ĠBut": 380,
      "od": 381,
      "Ġcon": 382,
      "ĠĠĠĠĠ": 383,
      "Ġwho": 384,
      "The": 385,
      "Ġar": 386,
      "fe": 387,
      "_,": 388,
      "ood": 389,
      "ĠThat": 390,
      "Ġshe": 391,
      "ate": 392,
      "Ġhad": 393,
      "Ġpl": 394,
      "Ġ'": 395,
      "ies": 396,
      "ame": 397,
      "Ġup": 398,
      "ig": 399,
      "Ġsw": 400,
      "Ġthy": 401,
      "Ġone": 402,
      "ation": 403,
      "ost": 404,
      "Ġsa": 405,
      "ĠIn": 406,
      "Ġal": 407,
      "Ġno": 408,
      "own": 409,
      "ves": 410,
      "Ġthee": 411,
      "âĢĻ": 412,
      "Ġfa": 413,
      "ish": 414,
      "Ġwhen": 415,
      "Ġma": 416,
      "Ġman": 417,
      "Ġmore": 418,
      "Ġlike": 419,
      "Ġ(": 420,
      "nt": 421,
      "ard": 422,
      "Ġour": 423,
      "ook": 424,
      "to": 425,
      "Ġthem": 426,
      "ĠOf": 427,
      "ings": 428,
      "very": 429,
      "Ġlove": 430,
      "ath": 431,
      "'d": 432,
      "Ġex": 433,
      "ry": 434,
      "Ġpo": 435,
      "old": 436,
      "Ġj": 437,
      "Ġkn": 438,
      "ble": 439,
      "ue": 440,
      "Ġun": 441,
      "ĠJ": 442,
      "Ġthere": 443,
      "ord": 444,
      "ĠĠĠĠĠĠĠĠĠĠĠĠĠĠĠĠ": 445,
      "lf": 446,
      "right": 447,
      "Ġlight": 448,
      "Ġcom": 449,
      "Ġits": 450,
      "pt": 451,
      "ĠY": 452,
      "ort": 453,
      "Ġgl": 454,
      "Ġnow": 455,
      "ink": 456,
      "Ġsome": 457,
      "urn": 458,
      "eet": 459,
      "ĠV": 460,
      "Ġcan": 461,
      "ive": 462,
      "nder": 463,
      "ity": 464,
      "au": 465,
      "ng": 466,
      "oy": 467,
      "Ġdo": 468,
      "ĠAs": 469,
      "Ġwere": 470,
      "Ġheart": 471,
      "Ġwill": 472,
      "Ġey": 473,
      "Ġcha": 474,
      "wn": 475,
      "ass": 476,
      "Ġtr": 477,
      "ĠWhen": 478,
      "Ġus": 479,
      "ĠSo": 480,
      "de": 481,
      "Ġwhat": 482,
      "uch": 483,
      "Ġshall": 484,
      "ak": 485,
      "Ġif": 486,
      "Ġim": 487,
      "out": 488,
      "Ġro": 489,
      "Ġmay": 490,
      "Ġqu": 491,
      "bl": 492,
      "ĠHe": 493,
      "ber": 494,
      "row": 495,
      "Ġhas": 496,
      "Ġwould": 497,
      "Ġlo": 498,
      "rou": 499,
      "ag": 500,
      "oth": 501,
      "ance": 502,
      "Ġpro": 503,
      "ays": 504,
      "ther": 505,
      "ĠFor": 506,
      "ci": 507,
      "ark": 508,
      "oul": 509,
      "ire": 510,
      "Ġfe": 511,
      "orn": 512,
      "are": 513,
      "ide": 514,
      "rit": 515,
      "ount": 516,
      "ft": 517,
      "ull": 518,
      "Ġthose": 519,
      "end": 520,
      "Ġtoo": 521,
      "ect": 522,
      "Ġcl": 523,
      "ond": 524,
      "ful": 525,
      "ĠWith": 526,
      "Ġab": 527,
      "Ġear": 528,
      "Ġsuch": 529,
      "ps": 530,
      "ree": 531,
      "._": 532,
      "Ġag": 533,
      "ory": 534,
      "igh": 535,
      "Ġstill": 536,
      "hed": 537,
      "HE": 538,
      "ved": 539,
      "ac": 540,
      "Ġyour": 541,
      "Ġaw": 542,
      "Ġsc": 543,
      "Ġout": 544,
      "Ġthan": 545,
      "Ġam": 546,
      "ake": 547,
      "Ġsm": 548,
      "Ġsee": 549,
      "Ġ16": 550,
      "ian": 551,
      "Ġra": 552,
      ",--": 553,
      "Ġsweet": 554,
      ".--": 555,
      "ap": 556,
      "Ġsoul": 557,
      "Ġwhere": 558,
      "ions": 559,
      "ade": 560,
      "Ġupon": 561,
      "ne": 562,
      "Ġeven": 563,
      "Ġlife": 564,
      "Ġen": 565,
      "itt": 566,
      "self": 567,
      "ime": 568,
      "Ġper": 569,
      "age": 570,
      "ĠâĢ": 571,
      "ER": 572,
      "ence": 573,
      "Ġthen": 574,
      "Ġown": 575,
      "Ġbright": 576,
      "Ġch": 577,
      "Ġapp": 578,
      "Ġhea": 579,
      "_.": 580,
      "ach": 581,
      "ks": 582,
      "ts": 583,
      "ise": 584,
      "ice": 585,
      "Ġshould": 586,
      "iss": 587,
      "ike": 588,
      "ud": 589,
      "Ġsun": 590,
      "irst": 591,
      "ream": 592,
      "Ġworld": 593,
      "Ġother": 594,
      "Ġevery": 595,
      "rin": 596,
      "iv": 597,
      "ms": 598,
      "oll": 599,
      "Ġnight": 600,
      "ite": 601,
      "Ġlook": 602,
      "Ġcould": 603,
      "ĠSt": 604,
      "ress": 605,
      "fore": 606,
      "Ġknow": 607,
      "ack": 608,
      "Ġgreat": 609,
      "ĠTHE": 610,
      "ness": 611,
      "per": 612,
      "Ġheaven": 613,
      "ons": 614,
      "Ġeyes": 615,
      "Ġlea": 616,
      "IN": 617,
      "ower": 618,
      "Ġthese": 619,
      "Ġlong": 620,
      "Ġthought": 621,
      "ment": 622,
      "Ġle": 623,
      "Ġhat": 624,
      "Ġpoet": 625,
      "US": 626,
      "ds": 627,
      "Ġgra": 628,
      "ious": 629,
      "Ġagain": 630,
      "Ġbeen": 631,
      "ave": 632,
      "ild": 633,
      "Ġinto": 634,
      "Ġday": 635,
      "not": 636,
      "Ġhow": 637,
      "Ġdes": 638,
      "ary": 639,
      "ere": 640,
      "Ġdid": 641,
      ";--": 642,
      "Ġart": 643,
      "Ġwhose": 644,
      "ted": 645,
      "less": 646,
      "ĠK": 647,
      "Ġhand": 648,
      "ĠLove": 649,
      "anc": 650,
      "ving": 651,
      "Ġmuch": 652,
      "ans": 653,
      "ears": 654,
      "cl": 655,
      "Ġad": 656,
      "ON": 657,
      "Ġlast": 658,
      "Ġtw": 659,
      "Ġlet": 660,
      "Ġold": 661,
      "Ġdis": 662,
      "hing": 663,
      "ii": 664,
      "Ġpart": 665,
      "Ġ18": 666,
      "pl": 667,
      "Ġ2": 668,
      "Ġwar": 669,
      "ens": 670,
      "Ġmust": 671,
      "Ġmade": 672,
      "the": 673,
      "Ġthink": 674,
      "gin": 675,
      "Ġfirst": 676,
      "ick": 677,
      "Ġaway": 678,
      "land": 679,
      "ru": 680,
      "Ġonly": 681,
      "ĠWhich": 682,
      "irit": 683,
      "Ġever": 684,
      "Ġ*": 685,
      "Ġcome": 686,
      "Ġ|": 687,
      "Ġyet": 688,
      "Ġsl": 689,
      "Ġearth": 690,
      "ĠIt": 691,
      "ĠWhere": 692,
      "ign": 693,
      "ff": 694,
      "ĠIs": 695,
      "Ġpre": 696,
      "ĠFrom": 697,
      "ia": 698,
      "ĠU": 699,
      "ĠOh": 700,
      "Ġnever": 701,
      "ĠWhile": 702,
      "ang": 703,
      "cc": 704,
      "Ġtime": 705,
      "Ġmany": 706,
      "Ġwell": 707,
      "Ġsay": 708,
      "ors": 709,
      "Ġmight": 710,
      "ace": 711,
      "!\"": 712,
      "ray": 713,
      "Ġwhile": 714,
      "Ġgo": 715,
      "Ġmost": 716,
      "Ġem": 717,
      "Ġany": 718,
      "ally": 719,
      "ym": 720,
      "Ġ4": 721,
      "aut": 722,
      "'ll": 723,
      "ip": 724,
      "Ġtra": 725,
      "oot": 726,
      "ĠThis": 727,
      "ab": 728,
      "Ġbeaut": 729,
      ",\"": 730,
      "AN": 731,
      "ring": 732,
      "ĠĠĠĠĠĠ": 733,
      "Ġthro": 734,
      "ĠOr": 735,
      "Ġrem": 736,
      "ittle": 737,
      "ĠThen": 738,
      "Ġed": 739,
      "ars": 740,
      "Ġmake": 741,
      "ĠWho": 742,
      "Ġmen": 743,
      "ĠLike": 744,
      "ĠIf": 745,
      "!--": 746,
      "ls": 747,
      "Ġhath": 748,
      "Ġthus": 749,
      "hes": 750,
      "me": 751,
      "Ġhour": 752,
      "Ġhere": 753,
      "xt": 754,
      "Ġdown": 755,
      "ĠWe": 756,
      "Ġunder": 757,
      "ES": 758,
      "ph": 759,
      "ĠHer": 760,
      "ĠâĢĺ": 761,
      "Ġcall": 762,
      "EN": 763,
      "Ġpass": 764,
      "owers": 765,
      "ough": 766,
      "Ġyoung": 767,
      "Ġfair": 768,
      "ene": 769,
      "Ġbefore": 770,
      "ather": 771,
      ",[": 772,
      "AR": 773,
      "led": 774,
      "read": 775,
      "ĠSp": 776,
      "Ġdream": 777,
      "Ġint": 778,
      "Ġmo": 779,
      "ĠRe": 780,
      "ope": 781,
      "ered": 782,
      "Ġdear": 783,
      "Ġnew": 784,
      "IS": 785,
      "ĠNo": 786,
      "Ġround": 787,
      "other": 788,
      "OR": 789,
      "ew": 790,
      "Ġlittle": 791,
      "ical": 792,
      "Ġonce": 793,
      "Ġimp": 794,
      "Ġsaid": 795,
      "Ġgood": 796,
      "ĠCh": 797,
      "ĠĠĠĠĠĠĠĠĠ": 798,
      "rough": 799,
      "ĠWhat": 800,
      "..": 801,
      "Ġdel": 802,
      "ier": 803,
      "ee": 804,
      "rown": 805,
      "ĠSha": 806,
      "tis": 807,
      "ied": 808,
      "man": 809,
      "Ġhar": 810,
      "ĠNor": 811,
      "Ġhead": 812,
      "was": 813,
      "ĠAll": 814,
      "aught": 815,
      "ated": 816,
      "ze": 817,
      "ert": 818,
      "Ġeach": 819,
      "ĠBy": 820,
      "Ġfeel": 821,
      "ale": 822,
      "ĠLord": 823,
      "Ġplay": 824,
      "Ġform": 825,
      "vers": 826,
      "Ġspirit": 827,
      ".\"--": 828,
      "Ġbet": 829,
      "Ġwrit": 830,
      "Ġple": 831,
      "Ġvery": 832,
      "Ġaf": 833,
      "les": 834,
      "Ġturn": 835,
      "Ġread": 836,
      "Ġke": 837,
      "Ġcont": 838,
      "ial": 839,
      "ple": 840,
      "Ġbel": 841,
      "riend": 842,
      "ause": 843,
      "ĠHis": 844,
      "Ġsk": 845,
      "Ġdark": 846,
      "Ġmind": 847,
      "Ġfar": 848,
      "Ġdeath": 849,
      "Ġjoy": 850,
      "Ġchar": 851,
      "ĠAt": 852,
      "sh": 853,
      "Ġtell": 854,
      "ĠThere": 855,
      "able": 856,
      "ĠMy": 857,
      "Ġwat": 858,
      "ren": 859,
      "Ġrest": 860,
      "Ġfind": 861,
      "ĠShe": 862,
      "ĠFa": 863,
      "Ġway": 864,
      "ĠBe": 865,
      "kes": 866,
      "ature": 867,
      "ents": 868,
      "Ġsle": 869,
      "ty": 870,
      "for": 871,
      "Ġseem": 872,
      "up": 873,
      "'ve": 874,
      "ten": 875,
      "90": 876,
      "ĠĠĠĠĠĠĠ": 877,
      "Ġbre": 878,
      "Ġbreat": 879,
      "ither": 880,
      "ĠMr": 881,
      "Ġair": 882,
      "OT": 883,
      "ling": 884,
      "LL": 885,
      "ering": 886,
      "Ġthrough": 887,
      "ows": 888,
      "Ġfound": 889,
      "Ġgold": 890,
      "ĠOn": 891,
      ",âĢĻ": 892,
      "And": 893,
      "Ġfriend": 894,
      "Ġpres": 895,
      "Ġdra": 896,
      "Ġpri": 897,
      "Ġover": 898,
      "ets": 899,
      "Ġgi": 900,
      "ĠHow": 901,
      "Ġmaid": 902,
      "Ġfall": 903,
      "its": 904,
      "ĠAr": 905,
      "omet": 906,
      ".[": 907,
      "ict": 908,
      "ĠOF": 909,
      "Ġtwo": 910,
      "ward": 911,
      "ins": 912,
      "Ġeye": 913,
      "ĠGod": 914,
      "Ġri": 915,
      "ined": 916,
      "Ġbec": 917,
      "ute": 918,
      "Ġoff": 919,
      "bs": 920,
      "Ġtho": 921,
      "ĠYet": 922,
      "rish": 923,
      "ret": 924,
      "Ġla": 925,
      "Ġhigh": 926,
      "Ġabout": 927,
      "mer": 928,
      "ham": 929,
      "Ġpe": 930,
      "ĠDe": 931,
      "Ġhapp": 932,
      "ĠThey": 933,
      "ĠThou": 934,
      "II": 935,
      "ures": 936,
      "Ġfull": 937,
      "ition": 938,
      "uth": 939,
      "rigin": 940,
      "be": 941,
      "ase": 942,
      "Ġrep": 943,
      "ction": 944,
      "ung": 945,
      "Ġthings": 946,
      "aint": 947,
      "Ġexp": 948,
      "16": 949,
      "Ġcame": 950,
      "Ġname": 951,
      "24": 952,
      "Ġtake": 953,
      "og": 954,
      "Ġend": 955,
      "ield": 956,
      "AM": 957,
      "31": 958,
      "Ġpast": 959,
      "int": 960,
      "Ġstr": 961,
      "ains": 962,
      "Th": 963,
      "ĠNow": 964,
      "Ġii": 965,
      "rew": 966,
      "iew": 967,
      "ever": 968,
      "ĠAl": 969,
      "ĠAn": 970,
      "Ġcur": 971,
      "Ġkind": 972,
      "Ġwords": 973,
      "Ġcons": 974,
      "get": 975,
      "Ġres": 976,
      "Ġwithout": 977,
      "ning": 978,
      "Ġsong": 979,
      "oss": 980,
      "note": 981,
      "ract": 982,
      "Ġpleas": 983,
      "Ġwhom": 984,
      "Ġhimself": 985,
      ":--": 986,
      "AS": 987,
      "mon": 988,
      "ock": 989,
      "ĠOne": 990,
      "Ġyouth": 991,
      "iz": 992,
      "so": 993,
      "Ġtri": 994,
      "Ġpower": 995,
      "Tis": 996,
      "Ġtre": 997,
      "ĠMar": 998,
      "ootnote": 999,
      "Ġche": 1000,
      "Ġsleep": 1001,
      "Ġsame": 1002,
      "Ġsigh": 1003,
      "ĠIrish": 1004,
      "LE": 1005,
      "Ġsin": 1006,
      "ates": 1007,
      "Ġgr": 1008,
      "Ġsil": 1009,
      "Ġbest": 1010,
      "Ġnor": 1011,
      "Ġnear": 1012,
      "Ġ189": 1013,
      "Ġback": 1014,
      "Ġalone": 1015,
      "med": 1016,
      "ines": 1017,
      "Ġser": 1018,
      "elt": 1019,
      "uc": 1020,
      "Ġbra": 1021,
      "ĠFA": 1022,
      "eared": 1023,
      "Ġwa": 1024,
      "Ġfire": 1025,
      "ations": 1026,
      "Ġafter": 1027,
      "Ġsea": 1028,
      "Ġpure": 1029,
      "sel": 1030,
      "âĢĶ": 1031,
      "bt": 1032,
      "ject": 1033,
      "oom": 1034,
      "Ġcour": 1035,
      "Ġsaw": 1036,
      "Ġgive": 1037,
      "âĢĿ": 1038,
      "ĠEng": 1039,
      "Ġjust": 1040,
      "Ġtrue": 1041,
      "ĠSome": 1042,
      "ĠâĢľ": 1043,
      "Ġwom": 1044,
      "ĠLet": 1045,
      "ĠNot": 1046,
      "Ġru": 1047,
      "Ġplace": 1048,
      "Footnote": 1049,
      "Ġset": 1050,
      "Ġmine": 1051,
      "ĠSh": 1052,
      "imes": 1053,
      "ĠYou": 1054,
      "ged": 1055,
      "Ġdeep": 1056,
      "Ġgu": 1057,
      "ib": 1058,
      "orrow": 1059,
      "ats": 1060,
      "Ġgen": 1061,
      "Ġ190": 1062,
      "ĠWhose": 1063,
      "den": 1064,
      "ense": 1065,
      "Ġlive": 1066,
      "Ġkeep": 1067,
      "Ġbr": 1068,
      "Ġatt": 1069,
      "Ġleft": 1070,
      "een": 1071,
      "Ġmus": 1072,
      "ual": 1073,
      "Ġbeing": 1074,
      "Ġill": 1075,
      "Ġsound": 1076,
      "Ġburn": 1077,
      "Ġhalf": 1078,
      "Ġste": 1079,
      "Ġgod": 1080,
      "Ġbri": 1081,
      "Ġcount": 1082,
      "ec": 1083,
      "Ġsoon": 1084,
      "ief": 1085,
      "Ġhum": 1086,
      "ĠSw": 1087,
      "ult": 1088,
      "Ġblood": 1089,
      "pe": 1090,
      ".\"--_": 1091,
      "oly": 1092,
      "Ġbir": 1093,
      ".]": 1094,
      "Ġsing": 1095,
      "ern": 1096,
      "Ġdist": 1097,
      "vil": 1098,
      "Ġacc": 1099,
      "Ġbro": 1100,
      "Ġfoll": 1101,
      "Ġmat": 1102,
      "Ġlay": 1103,
      "Ġchan": 1104,
      "ĠHea": 1105,
      "Ġvo": 1106,
      "Ġflowers": 1107,
      "cri": 1108,
      "Ġbrow": 1109,
      "Ġboth": 1110,
      "IC": 1111,
      "wh": 1112,
      "Ġwind": 1113,
      "ces": 1114,
      "oe": 1115,
      "Ġfear": 1116,
      "Ġmorn": 1117,
      "Ġ3": 1118,
      "Ġcrit": 1119,
      "Ġdead": 1120,
      "Ġappeared": 1121,
      "Ġwild": 1122,
      "ned": 1123,
      "ery": 1124,
      "Ġdou": 1125,
      "Ġdoth": 1126,
      "alm": 1127,
      "Ġseen": 1128,
      "ĠHeaven": 1129,
      "Ġhome": 1130,
      "az": 1131,
      "lt": 1132,
      "Ġmid": 1133,
      "Ġcomp": 1134,
      "eneath": 1135,
      "but": 1136,
      "Ġsomet": 1137,
      "ĠTO": 1138,
      "Ġwork": 1139,
      "Ġvain": 1140,
      "Ġwr": 1141,
      "Ġye": 1142,
      "eak": 1143,
      "Ġsupp": 1144,
      "Ġoh": 1145,
      "Ġlost": 1146,
      "Ġco": 1147,
      "Ġgone": 1148,
      "ash": 1149,
      "ubl": 1150,
      "Ġhope": 1151,
      "owing": 1152,
      "Ġrec": 1153,
      "Ġfew": 1154,
      "Ġent": 1155,
      "ilt": 1156,
      "AT": 1157,
      "oh": 1158,
      "Ġdiv": 1159,
      "Ġinf": 1160,
      "Ġgent": 1161,
      "Ġnothing": 1162,
      "rinted": 1163,
      "ished": 1164,
      "Ġet": 1165,
      "ĠSuch": 1166,
      "roud": 1167,
      "ron": 1168,
      "Ġmom": 1169,
      "Ġamong": 1170,
      "Ġdelight": 1171,
      "Ġfra": 1172,
      "eare": 1173,
      "ancy": 1174,
      "ched": 1175,
      "ily": 1176,
      "Ġright": 1177,
      "Ġbook": 1178,
      "Ġpers": 1179,
      "ail": 1180,
      "tos": 1181,
      "Ġtill": 1182,
      "Ġdie": 1183,
      "ustus": 1184,
      "Ġbeauty": 1185,
      "ertain": 1186,
      "Ġboy": 1187,
      "fect": 1188,
      "Ġsmile": 1189,
      "UST": 1190,
      "ixt": 1191,
      "Ġthine": 1192,
      "UR": 1193,
      "uri": 1194,
      "ism": 1195,
      "ix": 1196,
      "ĠFaustus": 1197,
      "Ġmet": 1198,
      "ool": 1199,
      ".)": 1200,
      "yr": 1201,
      "ank": 1202,
      "ĠĠĠĠĠĠĠĠĠĠĠĠĠĠĠĠĠĠĠĠĠĠĠĠ": 1203,
      "ub": 1204,
      "reed": 1205,
      "iter": 1206,
      "ĠThy": 1207,
      "Ġrel": 1208,
      "ands": 1209,
      "Ġmoon": 1210,
      "Ġsn": 1211,
      "Ġdif": 1212,
      "'t": 1213,
      "bject": 1214,
      "Ġpur": 1215,
      "Ġhear": 1216,
      "Ġheard": 1217,
      "let": 1218,
      "Ġret": 1219,
      "Ġmeet": 1220,
      "ken": 1221,
      "Ġarms": 1222,
      "ĠFAUST": 1223,
      "Ġinst": 1224,
      "als": 1225,
      "Ġwhole": 1226,
      "ollect": 1227,
      "selves": 1228,
      "IR": 1229,
      "ny": 1230,
      "Ġi": 1231,
      "Ġtit": 1232,
      "ady": 1233,
      "ĠTho": 1234,
      "ople": 1235,
      "PH": 1236,
      "und": 1237,
      "Ġside": 1238,
      "Ġcreat": 1239,
      "ĠWor": 1240,
      "Ġbeam": 1241,
      "unt": 1242,
      "Ġhearts": 1243,
      "Ġgiven": 1244,
      "ĠFAUSTUS": 1245,
      "Ġwant": 1246,
      "Ġbliss": 1247,
      "Ġabove": 1248,
      "ius": 1249,
      "Ġver": 1250,
      "Ġtou": 1251,
      "Ġsum": 1252,
      "Ġve": 1253,
      "rop": 1254,
      "OM": 1255,
      "Ġless": 1256,
      "Ġvir": 1257,
      "cious": 1258,
      "Ġmar": 1259,
      "ody": 1260,
      "Ġpain": 1261,
      "Ġpray": 1262,
      "onder": 1263,
      "eds": 1264,
      "angu": 1265,
      "oc": 1266,
      "Ġfree": 1267,
      "iful": 1268,
      "Ġmusic": 1269,
      "ible": 1270,
      "ways": 1271,
      "Ġtem": 1272,
      "Ġfly": 1273,
      "Ġlate": 1274,
      "Ġcop": 1275,
      "ĠHad": 1276,
      "ĠThus": 1277,
      "Ġ1616": 1278,
      "Ġhands": 1279,
      "ss": 1280,
      "ouse": 1281,
      "Ġoft": 1282,
      "Ġcare": 1283,
      "alk": 1284,
      "Ġsec": 1285,
      "Ġthough": 1286,
      "Ġ1624": 1287,
      "Ġbo": 1288,
      "ened": 1289,
      "Ġ1631": 1290,
      "Ġpresent": 1291,
      "riginally": 1292,
      "Ġfle": 1293,
      "Ġyears": 1294,
      "Ġvis": 1295,
      "ems": 1296,
      "Ġcritic": 1297,
      "Twas": 1298,
      "haps": 1299,
      "ĠAN": 1300,
      "ush": 1301,
      "well": 1302,
      "Ġdr": 1303,
      "ason": 1304,
      "resh": 1305,
      "Ġtak": 1306,
      "Ġtears": 1307,
      "Ġbeh": 1308,
      "ĠBl": 1309,
      "Ġsoft": 1310,
      "Ġshad": 1311,
      "Ġsmall": 1312,
      "Ġcalled": 1313,
      "air": 1314,
      "chan": 1315,
      "reland": 1316,
      "Ġcle": 1317,
      "umber": 1318,
      "Ġwit": 1319,
      "otion": 1320,
      "ury": 1321,
      "ĠOld": 1322,
      "OL": 1323,
      "Ġmon": 1324,
      "Ġaround": 1325,
      "Ġtrans": 1326,
      "Ġwand": 1327,
      "Ġlear": 1328,
      "Ġcold": 1329,
      "owed": 1330,
      "ĠPo": 1331,
      "Ġleave": 1332,
      "ING": 1333,
      "Ġgrace": 1334,
      "),": 1335,
      "ween": 1336,
      "ĠX": 1337,
      "ining": 1338,
      "rent": 1339,
      "urch": 1340,
      "ember": 1341,
      "IA": 1342,
      "hil": 1343,
      "Ġproud": 1344,
      "Ġstar": 1345,
      "IL": 1346,
      "cess": 1347,
      "ĠQ": 1348,
      "ĠIreland": 1349,
      "Ġlips": 1350,
      "Ġwithin": 1351,
      "Ġimag": 1352,
      "Ġclou": 1353,
      "Ġsad": 1354,
      "ĠMay": 1355,
      "rought": 1356,
      "Ġsmil": 1357,
      "ek": 1358,
      "ĠTill": 1359,
      "Ġloved": 1360,
      "Ġbreath": 1361,
      "ues": 1362,
      "har": 1363,
      "cept": 1364,
      "ĠEven": 1365,
      "Ġeds": 1366,
      "RE": 1367,
      "ced": 1368,
      "ires": 1369,
      "Ġhon": 1370,
      "Ġalways": 1371,
      "ords": 1372,
      "Ġmount": 1373,
      "att": 1374,
      "Ġhast": 1375,
      "Ġrun": 1376,
      "ians": 1377,
      "Ġtitle": 1378,
      "Wh": 1379,
      "Ġbring": 1380,
      "av": 1381,
      "ey": 1382,
      "Ġland": 1383,
      "Ġknew": 1384,
      "Ġpeople": 1385,
      "Ġdoubt": 1386,
      "light": 1387,
      "ĠThan": 1388,
      "Ġwhy": 1389,
      "Ġref": 1390,
      "ortal": 1391,
      "ĠVol": 1392,
      "Ġbecause": 1393,
      "Ġop": 1394,
      "Ġcar": 1395,
      "Ġforth": 1396,
      "ĠRep": 1397,
      "men": 1398,
      "Ġput": 1399,
      "Ġpoetry": 1400,
      "ĠUn": 1401,
      "sp": 1402,
      "Ġsent": 1403,
      "Ġstra": 1404,
      "ĠEn": 1405,
      "ĠUp": 1406,
      "Ġgentle": 1407,
      "Ġsim": 1408,
      "Ġbeneath": 1409,
      "ening": 1410,
      "Ġdays": 1411,
      "Ġrich": 1412,
      "vent": 1413,
      "Ġmin": 1414,
      "ories": 1415,
      "Ġglory": 1416,
      "Ġwarm": 1417,
      "gg": 1418,
      "low": 1419,
      "Ġbu": 1420,
      "Ġlangu": 1421,
      "Ġel": 1422,
      "Ġask": 1423,
      "Ġshort": 1424,
      "Ġface": 1425,
      "oke": 1426,
      "twas": 1427,
      "Ġpat": 1428,
      "ĠYe": 1429,
      "ĠOriginally": 1430,
      "ĠCome": 1431,
      "Ġworth": 1432,
      "AL": 1433,
      "Ġcomes": 1434,
      "Ġwoman": 1435,
      "RI": 1436,
      "aw": 1437,
      "use": 1438,
      "Ġcertain": 1439,
      "Ġgay": 1440,
      "ches": 1441,
      "te": 1442,
      "ange": 1443,
      "Ġweep": 1444,
      "une": 1445,
      "Ġanci": 1446,
      "Ġblest": 1447,
      "Ġcannot": 1448,
      "Ġmoment": 1449,
      "Ġcri": 1450,
      "Ġgave": 1451,
      "ote": 1452,
      "osed": 1453,
      "ymph": 1454,
      "Ġbeautiful": 1455,
      "ship": 1456,
      "Ġmod": 1457,
      "LA": 1458,
      "Ġmir": 1459,
      "ited": 1460,
      "Ġcast": 1461,
      "Ġcrown": 1462,
      "ĠSc": 1463,
      "ĠLea": 1464,
      "ĠCl": 1465,
      ".\"]": 1466,
      "Ġvoice": 1467,
      "mbl": 1468,
      "tw": 1469,
      "ying": 1470,
      "Ġsight": 1471,
      "Ġwent": 1472,
      "Ġgri": 1473,
      "ĠWas": 1474,
      "eth": 1475,
      "cks": 1476,
      "tern": 1477,
      "Ġcomm": 1478,
      "erest": 1479,
      "DE": 1480,
      "ner": 1481,
      "night": 1482,
      "Ġter": 1483,
      "Ġsur": 1484,
      "Ġfond": 1485,
      "Ġdisc": 1486,
      "Ġthr": 1487,
      "ume": 1488,
      "Ġcopy": 1489,
      "Ġere": 1490,
      "iest": 1491,
      "Ġact": 1492,
      "Ġmer": 1493,
      "ĠTheir": 1494,
      "ides": 1495,
      "Ġray": 1496,
      "Ġknown": 1497,
      "Ġbetween": 1498,
      "ris": 1499,
      "iness": 1500,
      "Ġhor": 1501,
      "ĠIN": 1502,
      "Ġstood": 1503,
      "aste": 1504,
      "ular": 1505,
      "Ġbless": 1506,
      "Ġconf": 1507,
      "Ġpoor": 1508,
      "Ġca": 1509,
      "Ġthemselves": 1510,
      "Ġrose": 1511,
      "Ġbetter": 1512,
      "Ġcharm": 1513,
      "Ġhappy": 1514,
      "Ġsince": 1515,
      "ics": 1516,
      "ĠMa": 1517,
      "Ġperhaps": 1518,
      "Ġcountry": 1519,
      "Ġda": 1520,
      "Ġass": 1521,
      "Ġanother": 1522,
      "ards": 1523,
      "IST": 1524,
      "rist": 1525,
      "Ġstand": 1526,
      "ĠME": 1527,
      "Ġmem": 1528,
      "ife": 1529,
      "Ġfriends": 1530,
      "Ġgener": 1531,
      "oes": 1532,
      "Ġfill": 1533,
      "ĠAm": 1534,
      "Ġbreak": 1535,
      "Ġmorning": 1536,
      "Ġetc": 1537,
      "ys": 1538,
      "Ġgro": 1539,
      "Ġmean": 1540,
      "Ġshore": 1541,
      "ift": 1542,
      "que": 1543,
      "Ġgolden": 1544,
      "lish": 1545,
      "Ġid": 1546,
      "Ġsorrow": 1547,
      "Ġsomething": 1548,
      "ollected": 1549,
      "ma": 1550,
      "Ġer": 1551,
      "Ġban": 1552,
      "Ġnone": 1553,
      "eace": 1554,
      "Ġkiss": 1555,
      "Ġmag": 1556,
      "Ġros": 1557,
      "Ġtook": 1558,
      "INE": 1559,
      "ments": 1560,
      "ĠShall": 1561,
      "ĠReprinted": 1562,
      "Ġ8": 1563,
      "Ġwing": 1564,
      "Ġwish": 1565,
      "inger": 1566,
      "Ġdone": 1567,
      "amp": 1568,
      "Ġ10": 1569,
      "'re": 1570,
      "To": 1571,
      "aim": 1572,
      "Ġreg": 1573,
      "amb": 1574,
      "Ġview": 1575,
      "ants": 1576,
      "Ġquite": 1577,
      "EC": 1578,
      "Ġcra": 1579,
      "Ġstay": 1580,
      "Ġitself": 1581,
      "Ġspeak": 1582,
      "Ġuse": 1583,
      "kesp": 1584,
      "most": 1585,
      "Ġfeet": 1586,
      "Ġthing": 1587,
      "ĠPl": 1588,
      "Ġflame": 1589,
      "Ġtouch": 1590,
      "ET": 1591,
      "het": 1592,
      "reen": 1593,
      "Ġbrought": 1594,
      "Ġfell": 1595,
      "ities": 1596,
      "ĠTw": 1597,
      "urst": 1598,
      "Ġshine": 1599,
      "Ġchild": 1600,
      "ĠKing": 1601,
      "Ġbelie": 1602,
      "day": 1603,
      "ef": 1604,
      "ĠZ": 1605,
      "oun": 1606,
      "Ġliter": 1607,
      "Ġind": 1608,
      "ating": 1609,
      "Ġthoughts": 1610,
      "Ġsky": 1611,
      "gether": 1612,
      "Ġmove": 1613,
      "Ġoften": 1614,
      "eng": 1615,
      "Ġwhite": 1616,
      "ĠBook": 1617,
      "ĠPar": 1618,
      "Ġpleasure": 1619,
      "Ġsummer": 1620,
      "ient": 1621,
      "my": 1622,
      "ont": 1623,
      "Ġhold": 1624,
      "ĠSee": 1625,
      "Ġbeg": 1626,
      "Ġstream": 1627,
      "Ġshow": 1628,
      "Ġperson": 1629,
      "Ġdiffe": 1630,
      "ĠUpon": 1631,
      "kespeare": 1632,
      "Ġsense": 1633,
      "Ġfresh": 1634,
      "arce": 1635,
      "Ġnymph": 1636,
      "ĠSir": 1637,
      "Ġword": 1638,
      "Ġflower": 1639,
      "Ġsouls": 1640,
      "ĠWorks": 1641,
      "\"--": 1642,
      "Ġwine": 1643,
      "Ġfield": 1644,
      "ists": 1645,
      "Ġancient": 1646,
      "der": 1647,
      "Ġte": 1648,
      "lect": 1649,
      "ĠCom": 1650,
      "ours": 1651,
      "Ġalong": 1652,
      "ĠHere": 1653,
      "Ġevening": 1654,
      "Ġenough": 1655,
      "Ġlooks": 1656,
      "Ġseemed": 1657,
      "Ġdivine": 1658,
      "lowe": 1659,
      "view": 1660,
      "Ġbed": 1661,
      "ised": 1662,
      "Ġdim": 1663,
      "Ġinc": 1664,
      "Ġothers": 1665,
      "Ġleast": 1666,
      "ob": 1667,
      "Ġred": 1668,
      "ames": 1669,
      "umb": 1670,
      "Ġagainst": 1671,
      "ĠEnglish": 1672,
      "10": 1673,
      "EL": 1674,
      "inb": 1675,
      "Ġinde": 1676,
      "Ġstre": 1677,
      "Ġbloom": 1678,
      "Ġsac": 1679,
      "Ġext": 1680,
      "ĠChrist": 1681,
      "ĠShakespeare": 1682,
      "In": 1683,
      "like": 1684,
      "Ġbear": 1685,
      "ctor": 1686,
      "aster": 1687,
      "ĠWhy": 1688,
      "Ġcharact": 1689,
      "Ġhard": 1690,
      "form": 1691,
      "Ġcourse": 1692,
      "reedom": 1693,
      "Ġreturn": 1694,
      ",)": 1695,
      "uck": 1696,
      "Ġwings": 1697,
      "Ġcor": 1698,
      "asure": 1699,
      "ĠThese": 1700,
      "Ġstri": 1701,
      "Ġlies": 1702,
      "ĠCan": 1703,
      "Ġtruth": 1704,
      "Ġiii": 1705,
      "mat": 1706,
      "Ġfelt": 1707,
      "Ġcry": 1708,
      "ĠTH": 1709,
      "ĠInd": 1710,
      "Ġspee": 1711,
      "ĠThose": 1712,
      "Ġking": 1713,
      "Ġshame": 1714,
      "Ġturned": 1715,
      "20": 1716,
      "AC": 1717,
      "sw": 1718,
      "hether": 1719,
      "Ġwood": 1720,
      "Ġmis": 1721,
      "arch": 1722,
      "alth": 1723,
      "alls": 1724,
      "Ġalso": 1725,
      "Ġdreams": 1726,
      "Ġinterest": 1727,
      "Ġvirt": 1728,
      "iam": 1729,
      "Ġsays": 1730,
      "Ġwave": 1731,
      "ought": 1732,
      "ĠOur": 1733,
      "ĠVen": 1734,
      "Ġleaves": 1735,
      "ĠMarlowe": 1736,
      "ED": 1737,
      "Ãĭ": 1738,
      "Ġlord": 1739,
      "ĠSe": 1740,
      "ety": 1741,
      "Ġstate": 1742,
      "Ġyear": 1743,
      "Ġsure": 1744,
      "Ġspell": 1745,
      "els": 1746,
      "bser": 1747,
      "Ġsacred": 1748,
      "ught": 1749,
      "ĠAre": 1750,
      "Ġhell": 1751,
      "Ġforg": 1752,
      "oose": 1753,
      "ĠThro": 1754,
      "Ġshade": 1755,
      "Ġconqu": 1756,
      "Ġpassion": 1757,
      "du": 1758,
      "ĠDo": 1759,
      "Ġspark": 1760,
      "Ġprof": 1761,
      "Ġverse": 1762,
      "Collected": 1763,
      "ured": 1764,
      "Ġtear": 1765,
      "Ġwonder": 1766,
      "Ġbow": 1767,
      "Ġbound": 1768,
      "Ġfancy": 1769,
      "Ġpp": 1770,
      "Ġhel": 1771,
      "Ġhair": 1772,
      "ained": 1773,
      "Ġloves": 1774,
      "OU": 1775,
      "OW": 1776,
      "iant": 1777,
      "ug": 1778,
      "Ġmist": 1779,
      "Ġnat": 1780,
      "Ġgrow": 1781,
      "Ġhaving": 1782,
      "aine": 1783,
      "Ġknows": 1784,
      "ws": 1785,
      "Ġneed": 1786,
      "ops": 1787,
      "ages": 1788,
      "Ġexpress": 1789,
      "Ġess": 1790,
      "orious": 1791,
      "Ġhung": 1792,
      "Ġdec": 1793,
      "Ġange": 1794,
      "Ġpoets": 1795,
      "Ġwater": 1796,
      "Ġbreast": 1797,
      "ror": 1798,
      "that": 1799,
      "Ġsat": 1800,
      "Ġlie": 1801,
      "Ġliving": 1802,
      "Ġrise": 1803,
      "ific": 1804,
      "Ġgrave": 1805,
      "ĠSpirit": 1806,
      "Ġclear": 1807,
      "Ãĭd": 1808,
      "mp": 1809,
      "outh": 1810,
      "Ġtold": 1811,
      "ĠWill": 1812,
      "ĠWere": 1813,
      "ality": 1814,
      "ĠPro": 1815,
      "ourn": 1816,
      "Ġfaith": 1817,
      "UM": 1818,
      "Ã©": 1819,
      "Ġfore": 1820,
      "Ġholy": 1821,
      "Ġdevil": 1822,
      "osom": 1823,
      "ired": 1824,
      "of": 1825,
      "pect": 1826,
      "ters": 1827,
      "Ġfam": 1828,
      "Ġfather": 1829,
      "Ġcir": 1830,
      "any": 1831,
      "Ġthree": 1832,
      "ĠBea": 1833,
      "ĠLe": 1834,
      "reath": 1835,
      "ĠEngland": 1836,
      "ĠYeats": 1837,
      ".,": 1838,
      ";[": 1839,
      "ipp": 1840,
      "wor": 1841,
      "ane": 1842,
      "uty": 1843,
      "ids": 1844,
      "Ġthous": 1845,
      "Ġmakes": 1846,
      "Ġlead": 1847,
      "Ġemotion": 1848,
      "Ġbosom": 1849,
      "Ġdro": 1850,
      "ĠAp": 1851,
      "Ġ\"_": 1852,
      "Ġplac": 1853,
      "Ġhours": 1854,
      "26": 1855,
      "50": 1856,
      "br": 1857,
      "king": 1858,
      "ting": 1859,
      "Ġtimes": 1860,
      "Ġod": 1861,
      "Ġfal": 1862,
      "Ġcup": 1863,
      "Ġtogether": 1864,
      "ĠAd": 1865,
      "Ġhero": 1866,
      "Ġstars": 1867,
      "Ġshed": 1868,
      "Ġpride": 1869,
      "?\"": 1870,
      "cy": 1871,
      "Ġdep": 1872,
      "Ġdoes": 1873,
      "ĠHero": 1874,
      "ohn": 1875,
      "IT": 1876,
      "Ġsign": 1877,
      "Ġcol": 1878,
      "Ġposs": 1879,
      "ster": 1880,
      "ĠWell": 1881,
      "riot": 1882,
      "ching": 1883,
      "Ġblue": 1884,
      "ĠJons": 1885,
      "Ex": 1886,
      "Ġ--": 1887,
      "ĠWould": 1888,
      "ĠFO": 1889,
      "Ġvar": 1890,
      "Ġshone": 1891,
      "Ġrather": 1892,
      "Ġblack": 1893,
      "ĠJonson": 1894,
      "That": 1895,
      "by": 1896,
      "what": 1897,
      "Ġtor": 1898,
      "Ġage": 1899,
      "Ġwear": 1900,
      "Ġmyself": 1901,
      "Ġused": 1902,
      "rench": 1903,
      "ĠShould": 1904,
      "Ġwrong": 1905,
      "?--": 1906,
      "Ġac": 1907,
      "ination": 1908,
      "Ġfast": 1909,
      "Ġfount": 1910,
      "lls": 1911,
      "Ġlist": 1912,
      "Ġcause": 1913,
      "vere": 1914,
      "Ġvict": 1915,
      "ĠStill": 1916,
      "ĠAND": 1917,
      "Ġdrink": 1918,
      "Oh": 1919,
      "na": 1920,
      "Ġwak": 1921,
      "Ġline": 1922,
      "ices": 1923,
      "Ġsubject": 1924,
      "Ġlover": 1925,
      "Ġadm": 1926,
      "....": 1927,
      "Ġbehind": 1928,
      "Ġauth": 1929,
      "Ġorigin": 1930,
      "arge": 1931,
      "Ġdwell": 1932,
      "ird": 1933,
      "Ġmeans": 1934,
      "Ġclose": 1935,
      "Ġcharms": 1936,
      "Ġindeed": 1937,
      "dom": 1938,
      "over": 1939,
      "Ġbes": 1940,
      "Ġleng": 1941,
      "Ġpath": 1942,
      "Ġpeace": 1943,
      "Ġgreen": 1944,
      "Ġstory": 1945,
      "ills": 1946,
      "Ġnext": 1947,
      "ept": 1948,
      "Ġunderst": 1949,
      "30": 1950,
      "OO": 1951,
      "bed": 1952,
      "Ġborn": 1953,
      "Ġpubl": 1954,
      "Ġbegin": 1955,
      "ĠLond": 1956,
      "ĠJohn": 1957,
      "Ġquick": 1958,
      "rince": 1959,
      "Ġ20": 1960,
      "ĠChurch": 1961,
      "PHIST": 1962,
      "ALL": 1963,
      "NOT": 1964,
      "ium": 1965,
      "ton": 1966,
      "Ġocc": 1967,
      "cend": 1968,
      "rill": 1969,
      "uring": 1970,
      "ĠFR": 1971,
      "Ġmere": 1972,
      "ĠNew": 1973,
      "Ġcommon": 1974,
      "Ġfeeling": 1975,
      "rence": 1976,
      "Ġlanguage": 1977,
      "vo": 1978,
      "Ġwound": 1979,
      "Ġlau": 1980,
      "Ġwhis": 1981,
      "ĠLady": 1982,
      "ĠPers": 1983,
      "Ġself": 1984,
      "Ġsuff": 1985,
      "ĠRose": 1986,
      "ump": 1987,
      "Ġadd": 1988,
      "lso": 1989,
      "ĠQu": 1990,
      "ole": 1991,
      "rine": 1992,
      "Ġpol": 1993,
      "ĠAlso": 1994,
      "Ġnature": 1995,
      "Ġele": 1996,
      "Ġforget": 1997,
      "ĠPer": 1998,
      "Ġspring": 1999,
      "ĠGree": 2000,
      "ational": 2001,
      "ĠYour": 2002,
      "Ġemb": 2003,
      "Ġground": 2004,
      "ID": 2005,
      "ges": 2006,
      "oved": 2007,
      "Ġsens": 2008,
      "Ġmad": 2009,
      "Ġmark": 2010,
      "Ġpr": 2011,
      "ils": 2012,
      "Ġimm": 2013,
      "ĠLondon": 2014,
      "28": 2015,
      "Ġbree": 2016,
      "Ġpar": 2017,
      "Ġhang": 2018,
      "Ġvol": 2019,
      "ĠEx": 2020,
      "ully": 2021,
      "Ġscene": 2022,
      "Ġremember": 2023,
      "ĠLeander": 2024,
      "ĠMEPHIST": 2025,
      "27": 2026,
      "Not": 2027,
      "aves": 2028,
      "ives": 2029,
      "mber": 2030,
      "nown": 2031,
      "Ġaff": 2032,
      "Ġbody": 2033,
      "Ġfoot": 2034,
      "Ġdri": 2035,
      "Ġval": 2036,
      "osop": 2037,
      "Ġpoint": 2038,
      "Ġsung": 2039,
      "Ġwrite": 2040,
      "OTNOT": 2041,
      "ĠFOOTNOT": 2042,
      "ĠFOOTNOTES": 2043,
      "But": 2044,
      "act": 2045,
      "come": 2046,
      "gs": 2047,
      "Ġest": 2048,
      "Ġfame": 2049,
      "url": 2050,
      "ament": 2051,
      "Ġsword": 2052,
      "ĠIsham": 2053,
      "anger": 2054,
      "AMB": 2055,
      "Ġgods": 2056,
      "Ġsnow": 2057,
      "aze": 2058,
      "Ġcap": 2059,
      "Ġdance": 2060,
      "Ġgot": 2061,
      "ENT": 2062,
      "Ġseems": 2063,
      "Ġburning": 2064,
      "ĠSweet": 2065,
      "Ġlearned": 2066,
      "gain": 2067,
      "iver": 2068,
      "Ġlat": 2069,
      "Ġcent": 2070,
      "lend": 2071,
      "vel": 2072,
      "ĠGo": 2073,
      "Ġintell": 2074,
      "Ġskies": 2075,
      "Ġstrong": 2076,
      "Ġmemory": 2077,
      "Ġliterature": 2078,
      "11": 2079,
      "ude": 2080,
      "Ġpra": 2081,
      "Ġtow": 2082,
      "Ġetern": 2083,
      "rid": 2084,
      "Ġdev": 2085,
      "Ġshalt": 2086,
      "Ġunc": 2087,
      "Ġglorious": 2088,
      "Ġwritten": 2089,
      "Ġgives": 2090,
      "Ġhuman": 2091,
      "AG": 2092,
      "Ġwise": 2093,
      "Ġph": 2094,
      "ĠHar": 2095,
      "ĠFl": 2096,
      "Ġsold": 2097,
      "Ġflo": 2098,
      "Ġalas": 2099,
      "Ġfav": 2100,
      "Ġ(_": 2101,
      "Ġgloom": 2102,
      "Ġscarce": 2103,
      "udge": 2104,
      "uff": 2105,
      "Ġ6": 2106,
      "Ġtong": 2107,
      "Ġsit": 2108,
      "Ġmur": 2109,
      "ĠTAMB": 2110,
      "Ġdam": 2111,
      "Ġgle": 2112,
      "ently": 2113,
      "Ġdef": 2114,
      "ĠPe": 2115,
      "ĠRome": 2116,
      "Ġflood": 2117,
      "Ġgrand": 2118,
      "URLA": 2119,
      "Ġthousand": 2120,
      "Ġlength": 2121,
      "ĠTAMBURLA": 2122,
      "ĠTAMBURLAINE": 2123,
      "For": 2124,
      "ST": 2125,
      "iber": 2126,
      "ones": 2127,
      "ored": 2128,
      "Ġsend": 2129,
      "Ġsub": 2130,
      "Ġflow": 2131,
      "Ġfact": 2132,
      "Ġsunny": 2133,
      "Ġmighty": 2134,
      "Ġcloud": 2135,
      "Ġfalse": 2136,
      "'m": 2137,
      "Ġobject": 2138,
      "Ġpen": 2139,
      "Ġhop": 2140,
      "Ġheld": 2141,
      "ĠMore": 2142,
      "ĠMAR": 2143,
      "ĠCup": 2144,
      "Ġmel": 2145,
      "iled": 2146,
      "alley": 2147,
      "Ġspread": 2148,
      "25": 2149,
      "Tw": 2150,
      "app": 2151,
      "ÃĬ": 2152,
      "Ġvers": 2153,
      "ince": 2154,
      "urs": 2155,
      "Ġdesp": 2156,
      "ancing": 2157,
      "Ġserv": 2158,
      "Ġbird": 2159,
      "hilosop": 2160,
      "Ġdifferent": 2161,
      "18": 2162,
      "aid": 2163,
      "mb": 2164,
      "way": 2165,
      "Ġson": 2166,
      "Ġfru": 2167,
      "Ġmother": 2168,
      "itter": 2169,
      "Ġlarge": 2170,
      "Ġcalm": 2171,
      "ĠAb": 2172,
      "Ġnumber": 2173,
      "ross": 2174,
      "ads": 2175,
      "Ġspr": 2176,
      "Ġarm": 2177,
      "Ġlovely": 2178,
      "Ġappear": 2179,
      "Ġbroken": 2180,
      "ĠEnter": 2181,
      "mbling": 2182,
      "17": 2183,
      "dle": 2184,
      "Ġwin": 2185,
      "Ġfier": 2186,
      "omp": 2187,
      "ĠIts": 2188,
      "Ġech": 2189,
      "ask": 2190,
      "ceed": 2191,
      "ĠMus": 2192,
      "Ġalmost": 2193,
      "ĠJove": 2194,
      "Ġdoom": 2195,
      "Ġhate": 2196,
      "Ġshadow": 2197,
      "Ġelse": 2198,
      "Ġspeech": 2199,
      "ĠBeauty": 2200,
      "CH": 2201,
      "Ġsort": 2202,
      "Ġlab": 2203,
      "ĠTr": 2204,
      "Ġdread": 2205,
      "Ġtown": 2206,
      "ests": 2207,
      "Ġshining": 2208,
      "Ġblus": 2209,
      "Ġunto": 2210,
      "Ġadv": 2211,
      "aughter": 2212,
      "Ġstrange": 2213,
      "IG": 2214,
      "TER": 2215,
      "nce": 2216,
      "pes": 2217,
      "Ġtry": 2218,
      "Ġgir": 2219,
      "asp": 2220,
      "ĠODE": 2221,
      "Ġstud": 2222,
      "ĠPap": 2223,
      "Ġsuper": 2224,
      "ĠThough": 2225,
      "Ġplan": 2226,
      "Ġchain": 2227,
      "Ġheads": 2228,
      "Ġbrave": 2229,
      "Ġcourt": 2230,
      "Ġmatter": 2231,
      "Ġchange": 2232,
      "Ġinfl": 2233,
      "ĠVenus": 2234,
      "Ġoriginal": 2235,
      "13": 2236,
      "14": 2237,
      "ION": 2238,
      "hy": 2239,
      "vid": 2240,
      "Ġwreath": 2241,
      "Ġlone": 2242,
      "Ġnaught": 2243,
      "Ġstor": 2244,
      "ĠFrench": 2245,
      "Ġnote": 2246,
      "esty": 2247,
      "estion": 2248,
      "Ġfled": 2249,
      "igion": 2250,
      "inks": 2251,
      "urne": 2252,
      "Ġlovers": 2253,
      "Ġfrag": 2254,
      "Ġstrain": 2255,
      "amburl": 2256,
      "amburlaine": 2257,
      "_--": 2258,
      "ience": 2259,
      "Ġbold": 2260,
      "Ġfate": 2261,
      "atch": 2262,
      "Ġhur": 2263,
      "ĠON": 2264,
      "ĠFirst": 2265,
      "ĠGreat": 2266,
      "oney": 2267,
      "Ġrace": 2268,
      "Ġdescri": 2269,
      "Ġwaves": 2270,
      "Ġtaken": 2271,
      "Ġmagic": 2272,
      "Ġlaugh": 2273,
      "15": 2274,
      "ips": 2275,
      "no": 2276,
      "rance": 2277,
      "Ġsch": 2278,
      "Ġins": 2279,
      "Ġhid": 2280,
      "Ġreason": 2281,
      "ĠCha": 2282,
      "ĠGra": 2283,
      "eps": 2284,
      "olog": 2285,
      "Ġalt": 2286,
      "Ġspirits": 2287,
      "Ġbelow": 2288,
      "Ġwaters": 2289,
      "ICK": 2290,
      "Ġvision": 2291,
      "Ġclouds": 2292,
      "Ġbelieve": 2293,
      "inburne": 2294,
      "fully": 2295,
      "gy": 2296,
      "ober": 2297,
      "tle": 2298,
      "uous": 2299,
      "under": 2300,
      "vy": 2301,
      "Ġtalk": 2302,
      "Ġfat": 2303,
      "Ġinv": 2304,
      "Ġ15": 2305,
      "Ġplain": 2306,
      "Ġunf": 2307,
      "ĠJust": 2308,
      "Ġpartic": 2309,
      "wards": 2310,
      "ĠSwinburne": 2311,
      "23": 2312,
      "As": 2313,
      "che": 2314,
      "Ġbar": 2315,
      "Ġlim": 2316,
      "Ġlust": 2317,
      "Ġport": 2318,
      "Ġpale": 2319,
      "vell": 2320,
      "ots": 2321,
      "Ġsty": 2322,
      "Ġweak": 2323,
      "Ġprop": 2324,
      "Ġappears": 2325,
      "Ġleaf": 2326,
      "ances": 2327,
      "ĠReview": 2328,
      "Ġwatch": 2329,
      "This": 2330,
      "ĠFROM": 2331,
      "29": 2332,
      "OV": 2333,
      "ared": 2334,
      "with": 2335,
      "Ġtro": 2336,
      "Ġtaught": 2337,
      "rest": 2338,
      "Ġfight": 2339,
      "anch": 2340,
      "Ġhue": 2341,
      "ural": 2342,
      "Ġstart": 2343,
      "Ġrece": 2344,
      "urious": 2345,
      "Ġstreng": 2346,
      "Ġhelp": 2347,
      "With": 2348,
      "bit": 2349,
      "Ġfine": 2350,
      "Ġce": 2351,
      "ĠTime": 2352,
      "ĠAh": 2353,
      "Ġgard": 2354,
      "ĠCon": 2355,
      "Ġdece": 2356,
      "east": 2357,
      "Ġven": 2358,
      "ĠYes": 2359,
      "Ġpret": 2360,
      "ready": 2361,
      "Ġimport": 2362,
      "Ġmoonlight": 2363,
      "Ġgrief": 2364,
      "Ġvirtue": 2365,
      "dden": 2366,
      "where": 2367,
      "Ġtaste": 2368,
      "Ġwon": 2369,
      "Ġbower": 2370,
      "Ġphilosop": 2371,
      "Ġstru": 2372,
      "ĠMan": 2373,
      "ĠFreedom": 2374,
      "ĠCould": 2375,
      "Ġhist": 2376,
      "Ġansw": 2377,
      "Ġflight": 2378,
      "Ġsteal": 2379,
      "undred": 2380,
      "Ġtender": 2381,
      "Ġauthor": 2382,
      "19": 2383,
      "AD": 2384,
      "IM": 2385,
      "LOW": 2386,
      "cher": 2387,
      "ead": 2388,
      "yond": 2389,
      "Ġtide": 2390,
      "Ġbark": 2391,
      "Ġfig": 2392,
      "Ġmor": 2393,
      "Ġmourn": 2394,
      "ench": 2395,
      "arm": 2396,
      "Ġinter": 2397,
      "irm": 2398,
      "cell": 2399,
      "ĠHave": 2400,
      "ĠPh": 2401,
      "ilight": 2402,
      "Ġjo": 2403,
      "Ġtherefore": 2404,
      "Ġenchan": 2405,
      "Ġwomen": 2406,
      "Ġthrone": 2407,
      "ĠAmong": 2408,
      "fic": 2409,
      "ived": 2410,
      "now": 2411,
      "yre": 2412,
      "Ġtyr": 2413,
      "Ġfit": 2414,
      "Ġmortal": 2415,
      "Ġpict": 2416,
      "ĠTur": 2417,
      "ley": 2418,
      "ĠSON": 2419,
      "ales": 2420,
      "thing": 2421,
      "Ġconst": 2422,
      "Ġswell": 2423,
      "Ġjoys": 2424,
      "III": 2425,
      "Ġbirth": 2426,
      "![": 2427,
      "Ġsir": 2428,
      "Ġfaint": 2429,
      "oud": 2430,
      "ĠTamburlaine": 2431,
      "Ġdest": 2432,
      "ĠSong": 2433,
      "Ġlip": 2434,
      "Ġrequ": 2435,
      "ĠChar": 2436,
      "Ġvan": 2437,
      "ĠNature": 2438,
      "ĠRom": 2439,
      "Ġswear": 2440,
      "ĠĠĠĠĠĠĠĠĠĠĠĠĠĠĠĠĠĠĠĠĠĠĠĠĠĠĠĠĠĠĠĠ": 2441,
      "Ġrosy": 2442,
      "]--": 2443,
      "cap": 2444,
      "dy": 2445,
      "Ġwond": 2446,
      "Ġfad": 2447,
      "Ġlines": 2448,
      "Ġcaught": 2449,
      "Ġpap": 2450,
      "Ġdrop": 2451,
      "Ġhouse": 2452,
      "Ġeither": 2453,
      "ĠHath": 2454,
      "ĠMiss": 2455,
      "Ġreign": 2456,
      "isht": 2457,
      "bles": 2458,
      "Ġseek": 2459,
      "Ġdesire": 2460,
      "Ġplease": 2461,
      "Ġcheek": 2462,
      "Ġsilent": 2463,
      "Ġsometimes": 2464,
      "Ġflew": 2465,
      "Ġcharacter": 2466,
      "Ġtongue": 2467,
      ").": 2468,
      "ger": 2469,
      "hood": 2470,
      "hym": 2471,
      "mper": 2472,
      "rous": 2473,
      "Ġtone": 2474,
      "Ġwhether": 2475,
      "eter": 2476,
      "ĠMe": 2477,
      "Ġsole": 2478,
      "Ġsever": 2479,
      "Ġsudden": 2480,
      "oyal": 2481,
      "assinger": 2482,
      "Ġlooked": 2483,
      "Ġbehold": 2484,
      "Ġcirc": 2485,
      "ric": 2486,
      "Ġsy": 2487,
      "Ġwalls": 2488,
      "Ġbowers": 2489,
      "Ġcity": 2490,
      "Ġcase": 2491,
      "Ġget": 2492,
      "Ġequ": 2493,
      "otions": 2494,
      "ĠCol": 2495,
      "Ġwel": 2496,
      "Ġshrine": 2497,
      "Ġring": 2498,
      "Ġsplend": 2499,
      "Ġcomb": 2500,
      "itted": 2501,
      "Ġkept": 2502,
      "Ġframe": 2503,
      "Ġunderstand": 2504,
      "Ġgleam": 2505,
      ".âĢĻ": 2506,
      "OB": 2507,
      "hold": 2508,
      "joy": 2509,
      "Ġbad": 2510,
      "Ġcond": 2511,
      "Ġhundred": 2512,
      "ril": 2513,
      "ribut": 2514,
      "Ġlives": 2515,
      "used": 2516,
      "usion": 2517,
      "Ġyield": 2518,
      "Ġsoci": 2519,
      "ĠNay": 2520,
      "ĠNational": 2521,
      "Ġris": 2522,
      "ĠGl": 2523,
      "Ġflies": 2524,
      "Ġglad": 2525,
      "Ġabs": 2526,
      "Ġ160": 2527,
      "Ġremem": 2528,
      "ĠFair": 2529,
      "Ġbeams": 2530,
      "Ġsecond": 2531,
      "Ġgeneral": 2532,
      "Ġmistress": 2533,
      "ĠCupid": 2534,
      "Of": 2535,
      "fl": 2536,
      "run": 2537,
      "Ġx": 2538,
      "Ġten": 2539,
      "Ġtree": 2540,
      "Ġwis": 2541,
      "Ġbatt": 2542,
      "Ġlute": 2543,
      "ative": 2544,
      "--_": 2545,
      "ĠObser": 2546,
      "ention": 2547,
      "Ġforce": 2548,
      "ĠLight": 2549,
      "Ġnecess": 2550,
      "oses": 2551,
      "Ġscen": 2552,
      "Ġfollow": 2553,
      "Ġcriticism": 2554,
      "Ġimmortal": 2555,
      "What": 2556,
      "por": 2557,
      "rate": 2558,
      "ites": 2559,
      "Ġling": 2560,
      "Ġlow": 2561,
      "Ġcut": 2562,
      "Ġliber": 2563,
      "Ġwealth": 2564,
      "Ġdew": 2565,
      "ility": 2566,
      "ĠNe": 2567,
      "ĠEd": 2568,
      "Ġspoke": 2569,
      "antic": 2570,
      "eph": 2571,
      "Ġconc": 2572,
      "fection": 2573,
      "claim": 2574,
      "Ġsighs": 2575,
      "ĠYoung": 2576,
      "Ġbrings": 2577,
      "Ġaccount": 2578,
      "Ġ30": 2579,
      "Ġbooks": 2580,
      "Ġsmiles": 2581,
      "Ġmirth": 2582,
      "Ġstrength": 2583,
      "ĠSONG": 2584,
      "No": 2585,
      "oice": 2586,
      "pic": 2587,
      "uly": 2588,
      "yce": 2589,
      "Ġfin": 2590,
      "Ġled": 2591,
      "ĠII": 2592,
      "ĠThee": 2593,
      "ĠMassinger": 2594,
      "Ġdeare": 2595,
      "ĠErin": 2596,
      "umph": 2597,
      "Ġfarew": 2598,
      "Ġlights": 2599,
      "Ġsmo": 2600,
      "Ġrad": 2601,
      "Ġhowever": 2602,
      "Ġplayed": 2603,
      "Ġfleet": 2604,
      "Ġstyle": 2605,
      "Ġfarewell": 2606,
      "He": 2607,
      "born": 2608,
      "ffect": 2609,
      "io": 2610,
      "ister": 2611,
      "itions": 2612,
      "Ġlad": 2613,
      "Ġdied": 2614,
      "ĠSince": 2615,
      "ĠBel": 2616,
      "Ġstray": 2617,
      "Ġlived": 2618,
      "Ġmyst": 2619,
      "ĠDes": 2620,
      "Ġspot": 2621,
      "Ġcomple": 2622,
      "Ġchains": 2623,
      "Ġgreater": 2624,
      "ublin": 2625,
      "Ġsimple": 2626,
      "Ġconquer": 2627,
      "fer": 2628,
      "known": 2629,
      "par": 2630,
      "Ġ7": 2631,
      "Ġut": 2632,
      "Ġtread": 2633,
      "Ġwret": 2634,
      "Ġwilt": 2635,
      "Ġfre": 2636,
      "Ġcru": 2637,
      "Ġprom": 2638,
      "Ġnation": 2639,
      "ĠSec": 2640,
      "ĠFancy": 2641,
      "Ġsol": 2642,
      "Ġspo": 2643,
      "Ġmaj": 2644,
      "Ġpoem": 2645,
      "Ġunt": 2646,
      "ney": 2647,
      "Ġchief": 2648,
      "iving": 2649,
      "Ġheavenly": 2650,
      "uced": 2651,
      "Ġhorse": 2652,
      "Ġforgot": 2653,
      "eed": 2654,
      "iod": 2655,
      "Ġ5": 2656,
      "Ġ9": 2657,
      "Ġbus": 2658,
      "orous": 2659,
      "ĠAgain": 2660,
      "ĠCount": 2661,
      "ease": 2662,
      "quis": 2663,
      "ption": 2664,
      "Ġears": 2665,
      "Ġperfect": 2666,
      "Ġveil": 2667,
      "Ġtransl": 2668,
      "Ġmerely": 2669,
      "Ġeternal": 2670,
      "Ġparticular": 2671,
      "iers": 2672,
      "you": 2673,
      "ÂĴ": 2674,
      "inn": 2675,
      "Ġmute": 2676,
      "Ġcr": 2677,
      "ĠTra": 2678,
      "Ġdull": 2679,
      "cean": 2680,
      "ĠCath": 2681,
      "illed": 2682,
      "ĠDra": 2683,
      "ĠEach": 2684,
      "Ġneck": 2685,
      "Ġsail": 2686,
      "aked": 2687,
      "bled": 2688,
      "acre": 2689,
      "Ġrare": 2690,
      "ples": 2691,
      "Ġ24": 2692,
      "Ġgoes": 2693,
      "Ġready": 2694,
      "Ġdarkness": 2695,
      "Ġlaid": 2696,
      "Ġfollowing": 2697,
      "Ġangel": 2698,
      "Ġsons": 2699,
      "Ġopp": 2700,
      "Ġfeast": 2701,
      "Ġpity": 2702,
      "Ġden": 2703,
      "Ġdart": 2704,
      "ried": 2705,
      "ĠOct": 2706,
      "Ġfort": 2707,
      "amed": 2708,
      "oore": 2709,
      "Ġneither": 2710,
      "ately": 2711,
      "rows": 2712,
      "Ġclaim": 2713,
      "Ġenjoy": 2714,
      "Ġlonger": 2715,
      "ably": 2716,
      "Ġmaids": 2717,
      "ized": 2718,
      "Ġsmiling": 2719,
      "Ġfields": 2720,
      "ĠApril": 2721,
      "Ġpraise": 2722,
      "Is": 2723,
      "Ġ&": 2724,
      "Ġwide": 2725,
      "Ġwalk": 2726,
      "Ġmaster": 2727,
      "Ġdire": 2728,
      "Ġeffect": 2729,
      "ĠSy": 2730,
      "asy": 2731,
      "ĠBright": 2732,
      "ĠLook": 2733,
      "Ġdecl": 2734,
      "ĠEl": 2735,
      "ĠEur": 2736,
      "Ġ17": 2737,
      "Ġkings": 2738,
      "Ġsafe": 2739,
      "Ġglance": 2740,
      "Ġdisp": 2741,
      "Ġslow": 2742,
      "Ġdraw": 2743,
      "Ġtriumph": 2744,
      "Ġsounds": 2745,
      "Ġbroke": 2746,
      "Ġsupposed": 2747,
      "Who": 2748,
      "Ġcried": 2749,
      "matic": 2750,
      "ĠObserver": 2751,
      "EM": 2752,
      "ae": 2753,
      "eks": 2754,
      "lier": 2755,
      "rant": 2756,
      "uke": 2757,
      "Ġz": 2758,
      "Ġtale": 2759,
      "Ġap": 2760,
      "ina": 2761,
      "ony": 2762,
      "Ġdare": 2763,
      "Ġnigh": 2764,
      "--'": 2765,
      "uss": 2766,
      "Ġforms": 2767,
      "iles": 2768,
      "Ġsport": 2769,
      "Ġorder": 2770,
      "ording": 2771,
      "Ġperiod": 2772,
      "Ġappro": 2773,
      "Ġdelic": 2774,
      "Ġrude": 2775,
      "Ġbirds": 2776,
      "Ġdawn": 2777,
      "ALLA": 2778,
      "Ġbreeze": 2779,
      "34": 2780,
      "Po": 2781,
      "cul": 2782,
      "fter": 2783,
      "gra": 2784,
      "ler": 2785,
      "ux": 2786,
      "Ġir": 2787,
      "Ġty": 2788,
      "head": 2789,
      "nds": 2790,
      "Ġfour": 2791,
      "Ġcou": 2792,
      "Ġpal": 2793,
      "Ġprin": 2794,
      "ĠAy": 2795,
      "Ġgaze": 2796,
      "ools": 2797,
      "Ġnotes": 2798,
      "ĠPat": 2799,
      "tho": 2800,
      "ified": 2801,
      "ĠThrough": 2802,
      "umes": 2803,
      "othing": 2804,
      "ended": 2805,
      "aph": 2806,
      "Ġ188": 2807,
      "Ġslumber": 2808,
      "ccess": 2809,
      "Ġemotions": 2810,
      "shine": 2811,
      "Ġtrembling": 2812,
      "Ġsilver": 2813,
      "ĠPoet": 2814,
      "Ġimagination": 2815,
      "Ġmodern": 2816,
      "ĠTwo": 2817,
      "Ġwelcome": 2818,
      "ĠOctober": 2819,
      "SE": 2820,
      "_.\"": 2821,
      "ox": 2822,
      "rum": 2823,
      "su": 2824,
      "rel": 2825,
      "Ġwake": 2826,
      "Ġstir": 2827,
      "ĠMag": 2828,
      "thy": 2829,
      "ĠNever": 2830,
      "Ġsphere": 2831,
      "akes": 2832,
      "Ġprove": 2833,
      "arent": 2834,
      "Ġscorn": 2835,
      "Ġthinks": 2836,
      "Ġslave": 2837,
      "Ġfairy": 2838,
      "Ġimpress": 2839,
      "ĠBefore": 2840,
      "Ġwrote": 2841,
      "ĠDoctor": 2842,
      "Ġhopes": 2843,
      "If": 2844,
      "eunt": 2845,
      "Ġrom": 2846,
      "Ġways": 2847,
      "Ġbid": 2848,
      "Ġming": 2849,
      "itude": 2850,
      "Ġcrow": 2851,
      "Ġhence": 2852,
      "ott": 2853,
      "Ġbeyond": 2854,
      "Ġ\"'": 2855,
      "ĠHope": 2856,
      "ĠMS": 2857,
      "aints": 2858,
      "ĠPrince": 2859,
      "ĠDel": 2860,
      "ander": 2861,
      "Ġalready": 2862,
      "Ġlooking": 2863,
      "ledge": 2864,
      "Ġcontin": 2865,
      "Ġlaw": 2866,
      "Ġwandering": 2867,
      "Ġpatriot": 2868,
      "Ġinflu": 2869,
      "ax": 2870,
      "dess": 2871,
      "gu": 2872,
      "Ġah": 2873,
      "Ġloose": 2874,
      "edy": 2875,
      "Ġpost": 2876,
      "ĠAra": 2877,
      "oms": 2878,
      "Ġgall": 2879,
      "ased": 2880,
      "ĠMoore": 2881,
      "Ġund": 2882,
      "ĠGre": 2883,
      "Ġglow": 2884,
      "Ġtrou": 2885,
      "Ġartist": 2886,
      "Ġremain": 2887,
      "Ġrespect": 2888,
      "Ġ1899": 2889,
      "Ġbrill": 2890,
      "ĠXX": 2891,
      "Ġmountain": 2892,
      "Ġroses": 2893,
      "AY": 2894,
      "CE": 2895,
      "My": 2896,
      "ior": 2897,
      "ivers": 2898,
      "mble": 2899,
      "rs": 2900,
      "val": 2901,
      "Ġes": 2902,
      "ints": 2903,
      "ingu": 2904,
      "Ġinsp": 2905,
      "atter": 2906,
      "Ġhost": 2907,
      "Ġgar": 2908,
      "asion": 2909,
      "ider": 2910,
      "ĠMem": 2911,
      "Ġreal": 2912,
      "ĠDay": 2913,
      "ĠDublin": 2914,
      "Ġran": 2915,
      "ĠRoyal": 2916,
      "ĠGen": 2917,
      "Ġcoming": 2918,
      "ends": 2919,
      "Ġearly": 2920,
      "Ġages": 2921,
      "Ġsunk": 2922,
      "Ġbecome": 2923,
      "ĠMarch": 2924,
      "Ġbride": 2925,
      "Ġsecret": 2926,
      "Ġplaces": 2927,
      "Ġecho": 2928,
      "There": 2929,
      "aff": 2930,
      "gl": 2931,
      "ging": 2932,
      "oon": 2933,
      "Ġide": 2934,
      "Ġze": 2935,
      "Ġtur": 2936,
      "inion": 2937,
      "Ġwest": 2938,
      "Ġble": 2939,
      "Ġhus": 2940,
      "Ġhills": 2941,
      "ĠSm": 2942,
      "rim": 2943,
      "ĠMO": 2944,
      "ĠPa": 2945,
      "this": 2946,
      "Ġherself": 2947,
      "ĠDid": 2948,
      "ante": 2949,
      "Ġworse": 2950,
      "Ġclass": 2951,
      "Ġtrad": 2952,
      "Ġtrain": 2953,
      "Ġcontem": 2954,
      "Ġtells": 2955,
      "Ġbreathed": 2956,
      "ĠDeath": 2957,
      "Ġbrother": 2958,
      "Ġsteep": 2959,
      "while": 2960,
      "Ġmidnight": 2961,
      "ĠQue": 2962,
      "Ġminute": 2963,
      "ĠBookman": 2964,
      "Ġnymphs": 2965,
      "Ġpublic": 2966,
      "Ġzeal": 2967,
      "33": 2968,
      "St": 2969,
      "TON": 2970,
      "eg": 2971,
      "there": 2972,
      "Ġburst": 2973,
      "Ġmouth": 2974,
      "Ġcool": 2975,
      "Ġpage": 2976,
      "Ġdanger": 2977,
      "Ġthrill": 2978,
      "oted": 2979,
      "ution": 2980,
      "ĠHE": 2981,
      "ided": 2982,
      "ĠLife": 2983,
      "Ġvill": 2984,
      "ĠDO": 2985,
      "Ġsuccess": 2986,
      "ĠRed": 2987,
      "antly": 2988,
      "Ġblush": 2989,
      "Ġconce": 2990,
      "Ġplays": 2991,
      "ĠĠĠĠĠĠĠĠĠĠĠĠĠĠĠĠĠĠĠĠĠ": 2992,
      "Ġdoor": 2993,
      "Ġmaiden": 2994,
      "Ġriver": 2995,
      "Ġconscious": 2996,
      "Ġ1903": 2997,
      "Ġgirl": 2998,
      "Ġdearest": 2999,
      "When": 3000,
      "co": 3001,
      "ok": 3002,
      "she": 3003,
      "Ġsym": 3004,
      "isc": 3005,
      "atre": 3006,
      "Ġnames": 3007,
      "set": 3008,
      "ĠWat": 3009,
      "ĠST": 3010,
      "ĠBY": 3011,
      "Ġstat": 3012,
      "ĠFar": 3013,
      "Ġyon": 3014,
      "ĠLuc": 3015,
      "ĠCo": 3016,
      "Ġsees": 3017,
      "ĠGood": 3018,
      "Ġworst": 3019,
      "Ġcompl": 3020,
      "Ġloft": 3021,
      "Ġsunshine": 3022,
      "enser": 3023,
      "Ġslaves": 3024,
      "Ġtrace": 3025,
      "ĠAnacre": 3026,
      "Ġruin": 3027,
      "Ġwanton": 3028,
      "Ġtakes": 3029,
      "umbers": 3030,
      "Exeunt": 3031,
      "Ġfierce": 3032,
      "Ġbattle": 3033,
      "Ġsmooth": 3034,
      ";\"": 3035,
      "ually": 3036,
      "erve": 3037,
      "lly": 3038,
      "Ġlose": 3039,
      "omes": 3040,
      "Ġhorn": 3041,
      "Ġbeat": 3042,
      "aled": 3043,
      "ĠMur": 3044,
      "Ġreach": 3045,
      "ĠCor": 3046,
      "ĠPO": 3047,
      "ĠEast": 3048,
      "ĠEmper": 3049,
      "Ġquestion": 3050,
      "cience": 3051,
      "arewell": 3052,
      "Ġprecious": 3053,
      "ORD": 3054,
      "Ġreading": 3055,
      "Ġdrama": 3056,
      "Ġsleeping": 3057,
      "Ġmoments": 3058,
      "Ġlearn": 3059,
      "Ġbegan": 3060,
      "Ġfavor": 3061,
      "Ġmajesty": 3062,
      "60": 3063,
      "eor": 3064,
      "liest": 3065,
      "mn": 3066,
      "son": 3067,
      "sue": 3068,
      "Ġsus": 3069,
      "ĠToo": 3070,
      "Ġdies": 3071,
      "Ġdost": 3072,
      "lebr": 3073,
      "iring": 3074,
      "ĠBish": 3075,
      "ram": 3076,
      "Ġisland": 3077,
      "ĠFrance": 3078,
      "ĠCH": 3079,
      "overed": 3080,
      "iff": 3081,
      "eless": 3082,
      "Ġsave": 3083,
      "Ġnoble": 3084,
      "Ġglass": 3085,
      "Ġtrust": 3086,
      "Ġimage": 3087,
      "Ġrock": 3088,
      "ached": 3089,
      "Ġenc": 3090,
      "Ġletter": 3091,
      "Ġparts": 3092,
      "Ġwarri": 3093,
      "Ġharp": 3094,
      "Ġfalls": 3095,
      "ĠDece": 3096,
      "ĠAlas": 3097,
      "Ġ1902": 3098,
      "Ġopen": 3099,
      "Ġsurp": 3100,
      "Ġbowl": 3101,
      "40": 3102,
      "ien": 3103,
      "kind": 3104,
      "min": 3105,
      "tic": 3106,
      "erv": 3107,
      "Ġfoe": 3108,
      "oured": 3109,
      "Ġpomp": 3110,
      "Ġdying": 3111,
      "athe": 3112,
      "ghost": 3113,
      "ĠMuse": 3114,
      "road": 3115,
      "ĠLo": 3116,
      "Ġvi": 3117,
      "Ġshines": 3118,
      "ounds": 3119,
      "Ġshare": 3120,
      "igs": 3121,
      "Ġswift": 3122,
      "Ġours": 3123,
      "Ġglim": 3124,
      "inking": 3125,
      "itting": 3126,
      "Ġremark": 3127,
      "which": 3128,
      "Ġweeping": 3129,
      "Ġnatural": 3130,
      "verend": 3131,
      "Ġintellect": 3132,
      "Ġcelebr": 3133,
      "LOWE": 3134,
      "ĠEurope": 3135,
      "Ġinfluence": 3136,
      "Re": 3137,
      "RAN": 3138,
      "apt": 3139,
      "can": 3140,
      "pher": 3141,
      "Ġtal": 3142,
      "Ġtea": 3143,
      "Ġocean": 3144,
      "isf": 3145,
      "Ġpay": 3146,
      "Ġpill": 3147,
      "Ġhot": 3148,
      "leen": 3149,
      "ĠSaint": 3150,
      "ĠSept": 3151,
      "enth": 3152,
      "ĠMon": 3153,
      "ĠMid": 3154,
      "vern": 3155,
      "ĠFe": 3156,
      "ĠLong": 3157,
      "ĠEre": 3158,
      "Ġord": 3159,
      "istop": 3160,
      "Ġdog": 3161,
      "ague": 3162,
      "...": 3163,
      "Ġturns": 3164,
      "Ġtried": 3165,
      "Ġvirgin": 3166,
      "Ġprayer": 3167,
      "Ġwander": 3168,
      "Ġfilled": 3169,
      "Ġcharacters": 3170,
      "Ġwoods": 3171,
      "Ġ----": 3172,
      "Ġlustre": 3173,
      "Ġscenes": 3174,
      "Ġhusb": 3175,
      ",âĢĿ": 3176,
      "An": 3177,
      "GE": 3178,
      "NER": 3179,
      "body": 3180,
      "ply": 3181,
      "rot": 3182,
      "Ġghost": 3183,
      "Ġsal": 3184,
      "reet": 3185,
      "Ġwoo": 3186,
      "Ġlake": 3187,
      "Ġlady": 3188,
      "ĠTell": 3189,
      "Ġhide": 3190,
      "Ġgaz": 3191,
      "ĠSun": 3192,
      "Ġhall": 3193,
      "ĠOR": 3194,
      "Ġstands": 3195,
      "Ġstories": 3196,
      "ĠHas": 3197,
      "Ġweary": 3198,
      "ĠPle": 3199,
      "ĠPri": 3200,
      "ĠDyce": 3201,
      "Ġrhym": 3202,
      "ement": 3203,
      "empt": 3204,
      "rines": 3205,
      "Ġleg": 3206,
      "ploy": 3207,
      "who": 3208,
      "Ġmidst": 3209,
      "Ġreligion": 3210,
      "hetor": 3211,
      "Ġvictory": 3212,
      "Ġbeside": 3213,
      "Ġpolit": 3214,
      "ĠGreek": 3215,
      "ĠMARLOWE": 3216,
      "Ġimportant": 3217,
      ".âĢĿ": 3218,
      "12": 3219,
      "UN": 3220,
      "aving": 3221,
      "duced": 3222,
      "go": 3223,
      "iety": 3224,
      "mes": 3225,
      "Ġwaste": 3226,
      "Ġwife": 3227,
      "Ġfet": 3228,
      "Ġmiss": 3229,
      "Ġmoney": 3230,
      "Ġpear": 3231,
      "Ġep": 3232,
      "Ġeat": 3233,
      "ĠBoth": 3234,
      "ĠBeneath": 3235,
      "rah": 3236,
      "enty": 3237,
      "ĠCast": 3238,
      "though": 3239,
      "Ġvalley": 3240,
      "ĠNight": 3241,
      "Ġlightning": 3242,
      "Ġroy": 3243,
      "Ġknowledge": 3244,
      "ĠKings": 3245,
      "Ġemploy": 3246,
      "Ġ40": 3247,
      "Ġedition": 3248,
      "ESS": 3249,
      "ĠLords": 3250,
      "ĠLordship": 3251,
      "beam": 3252,
      "Ġcurse": 3253,
      "Ġburned": 3254,
      "Ġwinds": 3255,
      "Ġtempt": 3256,
      "Ġhaste": 3257,
      "ĠMah": 3258,
      "OOD": 3259,
      "Ġblushing": 3260,
      "ephistop": 3261,
      "HT": 3262,
      "One": 3263,
      "Where": 3264,
      "bers": 3265,
      "bol": 3266,
      "fort": 3267,
      "iar": 3268,
      "Ġiv": 3269,
      "Ġbard": 3270,
      "Ġfro": 3271,
      "Ġfool": 3272,
      "ison": 3273,
      "Ġmast": 3274,
      "itation": 3275,
      "Ġcro": 3276,
      "Ġdancing": 3277,
      "anny": 3278,
      "ĠAIR": 3279,
      "Ġthrown": 3280,
      "Ġgrew": 3281,
      "chief": 3282,
      "ĠLaw": 3283,
      "ĠCON": 3284,
      "Ġdeal": 3285,
      "ĠEvery": 3286,
      "ĠELE": 3287,
      "Ġshape": 3288,
      "Ġconj": 3289,
      "Ġsake": 3290,
      "Ġexper": 3291,
      "ĠJan": 3292,
      "Ġqui": 3293,
      "Ġappl": 3294,
      "Ġremains": 3295,
      "Ġbeloved": 3296,
      "ĠAnge": 3297,
      "Ġcheeks": 3298,
      "Ġwait": 3299,
      "Ġgenius": 3300,
      "Ġmarch": 3301,
      "Ġhonour": 3302,
      "Ġbuy": 3303,
      "RID": 3304,
      "Ġbanks": 3305,
      "Ġchildren": 3306,
      "Ġhardly": 3307,
      "Ġangels": 3308,
      "OOK": 3309,
      "Ġfruit": 3310,
      "Ġaltar": 3311,
      "Ġbrilliant": 3312,
      "ah": 3313,
      "ize": 3314,
      "oqu": 3315,
      "then": 3316,
      "vol": 3317,
      "ynd": 3318,
      "rees": 3319,
      "Ġow": 3320,
      "Ġwoe": 3321,
      "Ġwench": 3322,
      "Ġpract": 3323,
      "Ġincl": 3324,
      "Ġho": 3325,
      "ĠIII": 3326,
      "icks": 3327,
      "ĠBar": 3328,
      "iment": 3329,
      "ĠHouse": 3330,
      "roy": 3331,
      "adise": 3332,
      "ĠCall": 3333,
      "ĠDream": 3334,
      "odies": 3335,
      "Ġjud": 3336,
      "ĠĠĠĠĠĠĠĠĠĠĠĠĠĠĠĠĠĠĠĠĠĠĠ": 3337,
      "Ġthinking": 3338,
      "ĠSpenser": 3339,
      "ĠGods": 3340,
      "Ġdistant": 3341,
      "Ġcover": 3342,
      "ashion": 3343,
      "Ġlately": 3344,
      "hilis": 3345,
      "lected": 3346,
      "OUN": 3347,
      "IDD": 3348,
      "Ġpaper": 3349,
      "Ġcomplete": 3350,
      "ĠAnacreon": 3351,
      "ĠSeptember": 3352,
      "ĠELEG": 3353,
      "_-": 3354,
      "bar": 3355,
      "gar": 3356,
      "hile": 3357,
      "noc": 3358,
      "rors": 3359,
      "Ġtask": 3360,
      "Ġfun": 3361,
      "isher": 3362,
      "Ġpaint": 3363,
      "ries": 3364,
      "ĠMephistop": 3365,
      "Ġreve": 3366,
      "ĠLake": 3367,
      "Ġdeg": 3368,
      "Ġmeant": 3369,
      "thou": 3370,
      "ĠEp": 3371,
      "ĠEar": 3372,
      "Ġsubl": 3373,
      "Ġspec": 3374,
      "Ġworks": 3375,
      "hant": 3376,
      "Ġarri": 3377,
      "Ġmanner": 3378,
      "Ġwhatever": 3379,
      "bling": 3380,
      "Ġfeather": 3381,
      "._[": 3382,
      "udes": 3383,
      "Ġlookt": 3384,
      "ĠState": 3385,
      "Ġformer": 3386,
      "Ġlaws": 3387,
      "Ġcheer": 3388,
      "Ġsingle": 3389,
      "Ġpurp": 3390,
      "Ġworthy": 3391,
      "Ġmeaning": 3392,
      "Ġvarious": 3393,
      "Ġfountain": 3394,
      "Ġmurm": 3395,
      "Ġgarden": 3396,
      "Ġfrequ": 3397,
      "ĠEmperor": 3398,
      "ĠDecember": 3399,
      "CAN": 3400,
      "DER": 3401,
      "IO": 3402,
      "See": 3403,
      "TH": 3404,
      "bor": 3405,
      "bid": 3406,
      "his": 3407,
      "iance": 3408,
      "long": 3409,
      "mong": 3410,
      "sed": 3411,
      "yl": 3412,
      "Ġobser": 3413,
      "Ġwed": 3414,
      "Ġfreedom": 3415,
      "Ġmed": 3416,
      "ital": 3417,
      "Ġlack": 3418,
      "Ġlux": 3419,
      "ĠTory": 3420,
      "ĠIV": 3421,
      "icient": 3422,
      "ĠWest": 3423,
      "Ġisle": 3424,
      "asted": 3425,
      "umn": 3426,
      "ounded": 3427,
      "osition": 3428,
      "Ġswords": 3429,
      "Ġexpl": 3430,
      "ĠJAC": 3431,
      "ĠĠĠĠĠĠĠĠĠĠĠĠĠĠĠĠĠ": 3432,
      "aking": 3433,
      "Ġroam": 3434,
      "Ġthence": 3435,
      "Ġdescend": 3436,
      "Ġformed": 3437,
      "Ġrid": 3438,
      "AMAS": 3439,
      "Ġyouthful": 3440,
      "Ġsilence": 3441,
      "Ġbrain": 3442,
      "Ġguard": 3443,
      "Ġchance": 3444,
      "Ġmonarch": 3445,
      "ĠIndian": 3446,
      "Ġoccasion": 3447,
      "Ġverses": 3448,
      "gypt": 3449,
      "Ġhistory": 3450,
      "From": 3451,
      "UD": 3452,
      "bus": 3453,
      "eep": 3454,
      "net": 3455,
      "hest": 3456,
      "Ġsought": 3457,
      "Ġwert": 3458,
      "hal": 3459,
      "Ġbond": 3460,
      "Ġcurious": 3461,
      "Ġcease": 3462,
      "Ġdiss": 3463,
      "Ġtomb": 3464,
      "Ġgem": 3465,
      "Ġgrown": 3466,
      "sec": 3467,
      "ĠSay": 3468,
      "ĠSea": 3469,
      "ĠBEN": 3470,
      "Ġstage": 3471,
      "ĠHym": 3472,
      "ĠMount": 3473,
      "ĠCar": 3474,
      "Ġmelt": 3475,
      "Ġvow": 3476,
      "ĠDante": 3477,
      "Ġseas": 3478,
      "Ġrank": 3479,
      "ĠRE": 3480,
      "oods": 3481,
      "igious": 3482,
      "Ġfaire": 3483,
      "Ġexist": 3484,
      "Ġglowing": 3485,
      "Ġglories": 3486,
      "Ġprose": 3487,
      "Ġprodu": 3488,
      "ERS": 3489,
      "Ġpassing": 3490,
      "Ġharm": 3491,
      "Ġharmon": 3492,
      "Ġcontent": 3493,
      "meric": 3494,
      "Ġsongs": 3495,
      "Ġtrees": 3496,
      "Ġbrim": 3497,
      "Ġvoices": 3498,
      "ĠBlake": 3499,
      "Ġcertainly": 3500,
      "Ġdrops": 3501,
      "Ġfatal": 3502,
      "Ġpretty": 3503,
      "ĠArab": 3504,
      "Ġroyal": 3505,
      "RIDAMAS": 3506,
      "ĠELEGIA": 3507,
      "',": 3508,
      "CON": 3509,
      "_;": 3510,
      "ipt": 3511,
      "mit": 3512,
      "ners": 3513,
      "upt": 3514,
      "Ġwither": 3515,
      "Ġbur": 3516,
      "Ġbore": 3517,
      "Ġfo": 3518,
      "Ġfan": 3519,
      "Ġfrown": 3520,
      "Ġcorn": 3521,
      "Ġtowards": 3522,
      "ĠALL": 3523,
      "ĠAmeric": 3524,
      "Ġhill": 3525,
      "stal": 3526,
      "ĠBull": 3527,
      "ĠMac": 3528,
      "rodu": 3529,
      "ĠCAR": 3530,
      "Ġmeasure": 3531,
      "iling": 3532,
      "ĠEgypt": 3533,
      "Ġanim": 3534,
      "Ġsugg": 3535,
      "ifer": 3536,
      "ulse": 3537,
      "quet": 3538,
      "They": 3539,
      "Ġexcept": 3540,
      "Ġpoems": 3541,
      "ĠĠĠĠĠĠĠĠĠĠĠĠĠĠĠĠĠĠ": 3542,
      "Ġchast": 3543,
      "Ġproper": 3544,
      "rite": 3545,
      "Ġraised": 3546,
      "resses": 3547,
      "Ġgreatest": 3548,
      "ĠTHERIDAMAS": 3549,
      "Ġgoing": 3550,
      "Ġminds": 3551,
      "ĠOnce": 3552,
      "Ġdrawn": 3553,
      "azz": 3554,
      "ĠĠĠĠĠĠĠĠĠĠĠĠĠĠĠĠĠĠĠĠĠĠĠĠĠĠ": 3555,
      "Ġhonor": 3556,
      "Ġcommand": 3557,
      "rison": 3558,
      "Ġwhisper": 3559,
      "Ġlater": 3560,
      "Ġstorm": 3561,
      "Ġlingering": 3562,
      "ĠMahomet": 3563,
      "ĠMephistophilis": 3564,
      "22": 3565,
      "IV": 3566,
      "OUR": 3567,
      "We": 3568,
      "ald": 3569,
      "bly": 3570,
      "rt": 3571,
      "zen": 3572,
      "Ãł": 3573,
      "Ġaught": 3574,
      "Ġwore": 3575,
      "erc": 3576,
      "Ġbill": 3577,
      "Ġbind": 3578,
      "Ġbase": 3579,
      "Ġfoul": 3580,
      "ises": 3581,
      "Ġmart": 3582,
      "Ġmild": 3583,
      "Ġmixt": 3584,
      "Ġloud": 3585,
      "ĠTake": 3586,
      "Ġneare": 3587,
      "Ġthunder": 3588,
      "uture": 3589,
      "ĠBE": 3590,
      "ĠHigh": 3591,
      "Ġrese": 3592,
      "ĠLET": 3593,
      "Ġdeck": 3594,
      "ĠPR": 3595,
      "ilg": 3596,
      "ĠDan": 3597,
      "ĠDICK": 3598,
      "ĠRel": 3599,
      "resent": 3600,
      "ĠInto": 3601,
      "ĠĠĠĠĠĠĠĠĠĠĠĠĠĠĠĠĠĠĠĠ": 3602,
      "ĠĠĠĠĠĠĠĠĠĠĠĠĠĠĠĠĠĠĠĠĠĠ": 3603,
      "assion": 3604,
      "Ġrocks": 3605,
      "Ġprob": 3606,
      "Ġawful": 3607,
      "Ġawhile": 3608,
      "anced": 3609,
      "Ġprep": 3610,
      "rayed": 3611,
      "ĠChief": 3612,
      "Ġbecame": 3613,
      "ocks": 3614,
      "Ġserious": 3615,
      "Ġtouched": 3616,
      "Ġphilosophy": 3617,
      "Ġpicture": 3618,
      "Ġliberty": 3619,
      "Ġfur": 3620,
      "Ġfade": 3621,
      "Ġlot": 3622,
      "Ġlyre": 3623,
      "Ġpop": 3624,
      "ĠTurn": 3625,
      "Ġinvent": 3626,
      "Ġnaked": 3627,
      "Ġheat": 3628,
      "--\"": 3629,
      "Ġgift": 3630,
      "Ġec": 3631,
      "ĠWind": 3632,
      "rient": 3633,
      "ĠBet": 3634,
      "rage": 3635,
      "ĠHell": 3636,
      "ĠLOV": 3637,
      "ĠĠĠĠĠĠĠĠĠĠĠĠĠĠĠ": 3638,
      "ĠDr": 3639,
      "Ġneg": 3640,
      "Ġsacri": 3641,
      "Ġexc": 3642,
      "Ġjour": 3643,
      "ĠĠĠĠĠĠĠĠĠĠĠĠĠĠĠĠĠĠĠ": 3644,
      "Ġquart": 3645,
      "Ġlocks": 3646,
      "Ġsweetly": 3647,
      "ĠSpeak": 3648,
      "Ġmock": 3649,
      "Ġwriters": 3650,
      "ĠArt": 3651,
      "ĠAround": 3652,
      "medi": 3653,
      "ĠTwilight": 3654,
      "Ġexpression": 3655,
      "Ġessay": 3656,
      "ĠWilliam": 3657,
      "Ġpossess": 3658,
      "Ġembra": 3659,
      "Ġlonely": 3660,
      "Ġ1604": 3661,
      "Ġnecessary": 3662,
      "Ġradiant": 3663,
      "Poems": 3664,
      "ĠQueen": 3665,
      "It": 3666,
      "IAN": 3667,
      "On": 3668,
      "cil": 3669,
      "gent": 3670,
      "vious": 3671,
      "Ġtim": 3672,
      "inions": 3673,
      "inted": 3674,
      "Ġsick": 3675,
      "Ġborrow": 3676,
      "Ġbalm": 3677,
      "Ġfest": 3678,
      "eness": 3679,
      "Ġpu": 3680,
      "Ġprinted": 3681,
      "Ġpair": 3682,
      "Ġdate": 3683,
      "ator": 3684,
      "Ġhol": 3685,
      "Ġhither": 3686,
      "leep": 3687,
      "ĠSil": 3688,
      "irt": 3689,
      "Ġbell": 3690,
      "aly": 3691,
      "ĠBac": 3692,
      "ĠMight": 3693,
      "Ġyonder": 3694,
      "ĠCelt": 3695,
      "ĠPrin": 3696,
      "ĠProp": 3697,
      "ĠDuke": 3698,
      "ĠEden": 3699,
      "Ġsuit": 3700,
      "ĠRes": 3701,
      "Ġexcell": 3702,
      "Ġroll": 3703,
      "Ġloving": 3704,
      "Ġabroad": 3705,
      "ĠKING": 3706,
      "Ġdispl": 3707,
      "Ġtrack": 3708,
      "Ġtravell": 3709,
      "Ġfeelings": 3710,
      "Thou": 3711,
      "Ġconsider": 3712,
      "ATE": 3713,
      "Ġmeth": 3714,
      "Ġstraight": 3715,
      "Ġcries": 3716,
      "Ġmirac": 3717,
      "Ġgroves": 3718,
      "Ġnative": 3719,
      "Ġcentury": 3720,
      "Ġintellig": 3721,
      "Ġstudy": 3722,
      "Ġwondrous": 3723,
      "Ġcruel": 3724,
      "Ġtype": 3725,
      "Ġsublime": 3726,
      "!)": 3727,
      "How": 3728,
      "Here": 3729,
      "ares": 3730,
      "eous": 3731,
      "ho": 3732,
      "uary": 3733,
      "Ã¨": 3734,
      "ĠâĢĻ": 3735,
      "Ġsings": 3736,
      "Ġsix": 3737,
      "erial": 3738,
      "Ġfol": 3739,
      "Ġmill": 3740,
      "aries": 3741,
      "Ġpowers": 3742,
      "Ġtop": 3743,
      "ĠAL": 3744,
      "ĠAM": 3745,
      "Ġthick": 3746,
      "Ġgain": 3747,
      "Ġeff": 3748,
      "ases": 3749,
      "ĠTheatre": 3750,
      "amlet": 3751,
      "unning": 3752,
      "Ġvest": 3753,
      "ĠDE": 3754,
      "ĠDear": 3755,
      "Ġrhetor": 3756,
      "emed": 3757,
      "osing": 3758,
      "Ġconcl": 3759,
      "Ġarts": 3760,
      "Ġkne": 3761,
      "ĠVI": 3762,
      "Ġchill": 3763,
      "Ġchurch": 3764,
      "cles": 3765,
      "Ġadorn": 3766,
      "Ġcalls": 3767,
      "Ġpassage": 3768,
      "Ġbreathe": 3769,
      "gedy": 3770,
      "Ġaccording": 3771,
      "Ġcreature": 3772,
      "Ġmelanch": 3773,
      "Ġseveral": 3774,
      "quisite": 3775,
      "ĠCathol": 3776,
      "CONOT": 3777,
      "Ġmelancholy": 3778,
      "bes": 3779,
      "bel": 3780,
      "cent": 3781,
      "ding": 3782,
      "ex": 3783,
      "eal": 3784,
      "ique": 3785,
      "oir": 3786,
      "ran": 3787,
      "rat": 3788,
      "such": 3789,
      "tered": 3790,
      "yn": 3791,
      "zz": 3792,
      "hall": 3793,
      "Ġfix": 3794,
      "Ġfuture": 3795,
      "Ġmass": 3796,
      "Ġlords": 3797,
      "ingers": 3798,
      "aring": 3799,
      "Ġpa": 3800,
      "Ġdi": 3801,
      "ĠSH": 3802,
      "ĠSym": 3803,
      "Ġbeast": 3804,
      "asures": 3805,
      "ĠBrun": 3806,
      "Ġstole": 3807,
      "ĠHel": 3808,
      "rove": 3809,
      "Ġalleg": 3810,
      "ĠNOT": 3811,
      "ĠDown": 3812,
      "Ġshows": 3813,
      "Ġworship": 3814,
      "Ġthyself": 3815,
      "ĠOft": 3816,
      "Ġchariot": 3817,
      "Ġfeed": 3818,
      "Ġfeat": 3819,
      "ĠWithin": 3820,
      ".--_": 3821,
      "Ġheavens": 3822,
      "Ġcontribut": 3823,
      "ĠBeing": 3824,
      "formed": 3825,
      "Ġhappiness": 3826,
      "Ġkeeps": 3827,
      "Ġhumble": 3828,
      "Ġgentleman": 3829,
      "Ġcapt": 3830,
      "ĠParis": 3831,
      "ĠChristian": 3832,
      "work": 3833,
      "Ġtower": 3834,
      "Ġsoldiers": 3835,
      "ology": 3836,
      "ĠPhoe": 3837,
      "Ġladies": 3838,
      "Ġideas": 3839,
      "Ġtradition": 3840,
      "ĠDOLL": 3841,
      "Ġhusband": 3842,
      "ĠPleasure": 3843,
      "ĠJACCONOT": 3844,
      "roduction": 3845,
      "ĠCeltic": 3846,
      "36": 3847,
      "37": 3848,
      "CC": 3849,
      "MP": 3850,
      "_)": 3851,
      "face": 3852,
      "hip": 3853,
      "more": 3854,
      "port": 3855,
      "Ġtum": 3856,
      "Ġtail": 3857,
      "erved": 3858,
      "Ġfem": 3859,
      "Ġfirm": 3860,
      "Ġmotion": 3861,
      "Ġdre": 3862,
      "Ġdet": 3863,
      "ĠAT": 3864,
      "Ġinnoc": 3865,
      "Ġnumbers": 3866,
      "Ġgif": 3867,
      "ĠWom": 3868,
      "ĠSav": 3869,
      "Ġones": 3870,
      "ĠMin": 3871,
      "ĠFOR": 3872,
      "Ġrecl": 3873,
      "ĠLat": 3874,
      "ths": 3875,
      "Ġrul": 3876,
      "Ġann": 3877,
      "geance": 3878,
      "ults": 3879,
      "ĠGu": 3880,
      "ĠGer": 3881,
      "ĠGeor": 3882,
      "ouses": 3883,
      "earing": 3884,
      "osen": 3885,
      "Ġmaking": 3886,
      "Ġimmedi": 3887,
      "ĠHeart": 3888,
      "Ġamb": 3889,
      "Ġraise": 3890,
      "Ġperform": 3891,
      "Ġdaylight": 3892,
      "OND": 3893,
      "ruct": 3894,
      "Ġearthly": 3895,
      "Ġsaying": 3896,
      "Ġmoved": 3897,
      "Ġwriter": 3898,
      "Ġwriting": 3899,
      "Ġskill": 3900,
      "ĠThought": 3901,
      "bey": 3902,
      "Ġcurrent": 3903,
      "Ġpersons": 3904,
      "Ġinstant": 3905,
      "Ġflying": 3906,
      "Ġshades": 3907,
      "ILIA": 3908,
      "Ġbuild": 3909,
      "twere": 3910,
      "Ġthrong": 3911,
      "Ġidea": 3912,
      "ĠParadise": 3913,
      "Ġdifference": 3914,
      "Ġcrystal": 3915,
      "Ġsparkling": 3916,
      "Ġessent": 3917,
      "Ġfamous": 3918,
      "Ġsprings": 3919,
      "Ġanswer": 3920,
      "ĠCharles": 3921,
      "35": 3922,
      "GEL": 3923,
      "Let": 3924,
      "So": 3925,
      "TEN": 3926,
      "_!": 3927,
      "cha": 3928,
      "gment": 3929,
      "rise": 3930,
      "uge": 3931,
      "Ġtend": 3932,
      "inct": 3933,
      "reme": 3934,
      "Ġbards": 3935,
      "Ġfie": 3936,
      "Ġfires": 3937,
      "Ġpress": 3938,
      "anqu": 3939,
      "Ġeag": 3940,
      "Ġease": 3941,
      "ĠSat": 3942,
      "ĠSCH": 3943,
      "Ġhaun": 3944,
      "Ġstep": 3945,
      "ĠHim": 3946,
      "ĠFIR": 3947,
      "ĠLiber": 3948,
      "ĠDiv": 3949,
      "Ġshrines": 3950,
      "Ġspeed": 3951,
      "ulous": 3952,
      "ument": 3953,
      "Ġbloss": 3954,
      "Ġshapes": 3955,
      "ustom": 3956,
      "fend": 3957,
      "Ġexam": 3958,
      "Ġexquisite": 3959,
      "Ġunknown": 3960,
      "ĠJuly": 3961,
      "ĠĠĠĠĠĠĠĠĠĠĠĠĠĠĠĠĠĠĠĠĠĠĠĠĠ": 3962,
      "aced": 3963,
      "Ġrainb": 3964,
      "Ġsweetness": 3965,
      "Ġchords": 3966,
      "Ġknowing": 3967,
      "rupt": 3968,
      "igned": 3969,
      "Ġemp": 3970,
      "Ġfallen": 3971,
      "izab": 3972,
      "Ġwaft": 3973,
      "Ġgoddess": 3974,
      "Ġenter": 3975,
      "uries": 3976,
      "OME": 3977,
      "ĠANGEL": 3978,
      "Ġtaking": 3979,
      "ILIS": 3980,
      "Ġruns": 3981,
      "Ġgrie": 3982,
      "Ġbreaking": 3983,
      "ECILIA": 3984,
      "Ġmischief": 3985,
      "Ġpossible": 3986,
      "Ġsufficient": 3987,
      "Ġwinter": 3988,
      "ĠMusic": 3989,
      "Ġmournful": 3990,
      "ĠElizab": 3991,
      "Ġlofty": 3992,
      "ĠORCAN": 3993,
      "ĠAngel": 3994,
      "ĠLETTER": 3995,
      "ĠORCANES": 3996,
      ".'": 3997,
      "38": 3998,
      "God": 3999,
      "OPH": 4000,
      "UC": 4001,
      "Un": 4002,
      "VOL": 4003,
      "You": 4004,
      "ais": 4005,
      "bered": 4006,
      "fice": 4007,
      "gue": 4008,
      "ky": 4009,
      "ming": 4010,
      "ses": 4011,
      "ta": 4012,
      "wise": 4013,
      "ye": 4014,
      "zy": 4015,
      "inary": 4016,
      "Ġwhe": 4017,
      "Ġwits": 4018,
      "Ġfashion": 4019,
      "esh": 4020,
      "Ġdin": 4021,
      "Ġdue": 4022,
      "Ġduring": 4023,
      "ĠIS": 4024,
      "Ġgather": 4025,
      "asant": 4026,
      "lys": 4027,
      "ĠHIS": 4028,
      "iding": 4029,
      "ĠMaster": 4030,
      "ades": 4031,
      "Ġreally": 4032,
      "ĠLand": 4033,
      "ĠLORD": 4034,
      "ĠCECILIA": 4035,
      "Ġship": 4036,
      "Ġant": 4037,
      "Ġspite": 4038,
      "quire": 4039,
      "Ġblank": 4040,
      "pper": 4041,
      "osa": 4042,
      "Ġpled": 4043,
      "ishing": 4044,
      "Ġourselves": 4045,
      "Ġcomedy": 4046,
      "Ġglitter": 4047,
      "Ġtrump": 4048,
      "_.)": 4049,
      "they": 4050,
      "Ġbeauties": 4051,
      "Ġaffect": 4052,
      "Ġbelong": 4053,
      "Ġrepe": 4054,
      "Ġpleasant": 4055,
      "Ġmatch": 4056,
      "Ġmaterial": 4057,
      "Ġcompany": 4058,
      "Ġboys": 4059,
      "Ġinstead": 4060,
      "Ġblessed": 4061,
      "Ġgrove": 4062,
      "ĠPersia": 4063,
      "ceeding": 4064,
      "Ġnearer": 4065,
      "ĠSCHOL": 4066,
      "LY": 4067,
      "iven": 4068,
      "may": 4069,
      "mons": 4070,
      "sar": 4071,
      "tell": 4072,
      "ued": 4073,
      "Ġ]": 4074,
      "Ġing": 4075,
      "Ġable": 4076,
      "eral": 4077,
      "Ġband": 4078,
      "Ġbig": 4079,
      "Ġfron": 4080,
      "Ġfixt": 4081,
      "Ġmut": 4082,
      "itch": 4083,
      "Ġcat": 4084,
      "Ġpie": 4085,
      "ĠTre": 4086,
      "Ġdress": 4087,
      "Ġhig": 4088,
      "lets": 4089,
      "ĠWar": 4090,
      "Ġbend": 4091,
      "riage": 4092,
      "Ġsteps": 4093,
      "ĠMor": 4094,
      "key": 4095,
      "ested": 4096,
      "estial": 4097,
      "asting": 4098,
      "ify": 4099,
      "Ġ14": 4100,
      "Ġ19": 4101,
      "ĠRem": 4102,
      "umed": 4103,
      "ellow": 4104,
      "Ġexact": 4105,
      "Ġlighted": 4106,
      "Ġchase": 4107,
      "aces": 4108,
      "Ġrap": 4109,
      "Ġperf": 4110,
      "ivid": 4111,
      "Ġdesires": 4112,
      "Ġparting": 4113,
      "Ġanything": 4114,
      "Ġpriv": 4115,
      "Tho": 4116,
      "Ġattempt": 4117,
      "Ġsinging": 4118,
      "Ġcritical": 4119,
      "Ġdiffic": 4120,
      "Ġcreatures": 4121,
      "Ġmarble": 4122,
      "Ġtemples": 4123,
      "Ġsmiled": 4124,
      "Ġterri": 4125,
      "Ġidol": 4126,
      "Ġmagn": 4127,
      "Ġwinged": 4128,
      "ĠComp": 4129,
      "Exit": 4130,
      "Ġtowers": 4131,
      "Twixt": 4132,
      "Ġschool": 4133,
      "Ġmoral": 4134,
      "Ġcrowd": 4135,
      "Ġcelebrated": 4136,
      "Ġpurpose": 4137,
      "Ġjourney": 4138,
      "ĠFIRST": 4139,
      "VOLIO": 4140,
      "ĠSCHOLAR": 4141,
      "AB": 4142,
      "By": 4143,
      "PT": 4144,
      "gan": 4145,
      "we": 4146,
      "yes": 4147,
      "Ġ.": 4148,
      "Ġsink": 4149,
      "Ġsaint": 4150,
      "Ġob": 4151,
      "Ġfingers": 4152,
      "Ġmix": 4153,
      "lla": 4154,
      "enn": 4155,
      "Ġlap": 4156,
      "Ġlamp": 4157,
      "Ġluck": 4158,
      "Ġcher": 4159,
      "Ġcost": 4160,
      "ington": 4161,
      "Ġpun": 4162,
      "Ġpull": 4163,
      "Ġdaughter": 4164,
      "ĠAR": 4165,
      "Ġnest": 4166,
      "Ġthrow": 4167,
      "Ġeast": 4168,
      "seen": 4169,
      "ĠSad": 4170,
      "utes": 4171,
      "ĠBab": 4172,
      "ims": 4173,
      "Ġstain": 4174,
      "chus": 4175,
      "ĠHan": 4176,
      "ĠHER": 4177,
      "ĠMust": 4178,
      "ĠFriend": 4179,
      "ĠFudge": 4180,
      "ĠFarewell": 4181,
      "Ġyes": 4182,
      "ĠCour": 4183,
      "Ġdeeds": 4184,
      "Ġhers": 4185,
      "hens": 4186,
      "ĠDick": 4187,
      "Ġspare": 4188,
      "Ġneigh": 4189,
      "ĠWhom": 4190,
      "ums": 4191,
      "Ġworsh": 4192,
      "elled": 4193,
      "Ġflesh": 4194,
      "Ġtheme": 4195,
      "Ġexclaim": 4196,
      "ĠJune": 4197,
      "Ġroom": 4198,
      "Ġrage": 4199,
      "Ġrapt": 4200,
      "place": 4201,
      "ĠReason": 4202,
      "Ġnews": 4203,
      "Ġbelief": 4204,
      "ĠDead": 4205,
      "Ġgrant": 4206,
      "Ġserve": 4207,
      "Ġguess": 4208,
      "Ġdistingu": 4209,
      "Ġrights": 4210,
      "Ġvisit": 4211,
      "Ġdrun": 4212,
      "Ġmountains": 4213,
      "Ġsimpl": 4214,
      "Ġminst": 4215,
      "mbled": 4216,
      "twixt": 4217,
      "Ġstrife": 4218,
      "ĠIndia": 4219,
      "Ġsatisf": 4220,
      "Ġplaced": 4221,
      "Ġodd": 4222,
      "ĠGreece": 4223,
      "Ġgloomy": 4224,
      "ĠTruth": 4225,
      "Ġdreadful": 4226,
      "Ġfragrant": 4227,
      "Ġlaughing": 4228,
      "Ġenchanted": 4229,
      "cape": 4230,
      "Ġsolemn": 4231,
      "ĠSecret": 4232,
      "ĠLucifer": 4233,
      "ĠBENVOLIO": 4234,
      "ĠHymen": 4235,
      "ĠGeorge": 4236,
      "OPHILIS": 4237,
      "39": 4238,
      "Be": 4239,
      "IF": 4240,
      "PE": 4241,
      "cause": 4242,
      "gic": 4243,
      "some": 4244,
      "vail": 4245,
      "Ġ50": 4246,
      "Ġtreat": 4247,
      "Ġtune": 4248,
      "Ġaid": 4249,
      "Ġball": 4250,
      "Ġfed": 4251,
      "Ġfive": 4252,
      "Ġfools": 4253,
      "oring": 4254,
      "orical": 4255,
      "ences": 4256,
      "Ġprince": 4257,
      "Ġhealth": 4258,
      "ĠSl": 4259,
      "ĠSoul": 4260,
      "Ġbew": 4261,
      "alf": 4262,
      "rahan": 4263,
      "ĠHoly": 4264,
      "ĠMade": 4265,
      "ĠLX": 4266,
      "ĠLiter": 4267,
      "ĠPope": 4268,
      "Ġseven": 4269,
      "Ġsepar": 4270,
      "Ġshoot": 4271,
      "Ġsuc": 4272,
      "ĠThink": 4273,
      "elestial": 4274,
      "Ġblow": 4275,
      "Ġblast": 4276,
      "isters": 4277,
      "Ġnoon": 4278,
      "Ġmankind": 4279,
      "Ġglide": 4280,
      "Ġloath": 4281,
      "new": 4282,
      "Ġperce": 4283,
      "Ġworlds": 4284,
      "Ġtwilight": 4285,
      "EST": 4286,
      "Ġpresence": 4287,
      "ĠArn": 4288,
      "Ġexpect": 4289,
      "Ġcurst": 4290,
      "AST": 4291,
      "Ġchanged": 4292,
      "cript": 4293,
      "Ġbrows": 4294,
      "Ġfearful": 4295,
      "Ġwitness": 4296,
      "Ġhonest": 4297,
      "Ġbuilt": 4298,
      "Ġbanquet": 4299,
      "Ġcraft": 4300,
      "Ġpersonal": 4301,
      "Ġkingdom": 4302,
      "Ġspells": 4303,
      "Ġgrows": 4304,
      "ification": 4305,
      "Ġheroes": 4306,
      "Ġtorch": 4307,
      "ĠPersian": 4308,
      "Ġdamned": 4309,
      "Ġsubst": 4310,
      "Ġservice": 4311,
      "Ġstrugg": 4312,
      "Ġsplendor": 4313,
      "ĠGenius": 4314,
      "ĠJanuary": 4315,
      "ĠSpeaker": 4316,
      "48": 4317,
      "67": 4318,
      "BER": 4319,
      "ELL": 4320,
      "KE": 4321,
      "YR": 4322,
      "how": 4323,
      "po": 4324,
      "rp": 4325,
      "ua": 4326,
      "ero": 4327,
      "Ġloss": 4328,
      "Ġcross": 4329,
      "Ġcatch": 4330,
      "Ġpor": 4331,
      "ĠTem": 4332,
      "ĠAct": 4333,
      "Ġinha": 4334,
      "ators": 4335,
      "Ġthin": 4336,
      "Ġthirst": 4337,
      "Ġhym": 4338,
      "Ġheight": 4339,
      "Ġev": 4340,
      "Ġeve": 4341,
      "ichar": 4342,
      "ĠWal": 4343,
      "rib": 4344,
      "urse": 4345,
      "ĠBOB": 4346,
      "ident": 4347,
      "ĠMIDD": 4348,
      "ĠFRE": 4349,
      "ĠChan": 4350,
      "ĠCame": 4351,
      "ĠCorn": 4352,
      "Ġvast": 4353,
      "ĠNothing": 4354,
      "ĠRight": 4355,
      "ĠRound": 4356,
      "ĠROB": 4357,
      "fered": 4358,
      "ference": 4359,
      "Ġshepher": 4360,
      "Ġalive": 4361,
      "Ġunl": 4362,
      "ĠJud": 4363,
      "ĠSoon": 4364,
      "blest": 4365,
      "Ġamid": 4366,
      "Ġener": 4367,
      "Ġbrightest": 4368,
      "Ġchoice": 4369,
      "ival": 4370,
      "Ġnights": 4371,
      "Ġletters": 4372,
      "Ġgoble": 4373,
      "Ġdelay": 4374,
      "ĠMrs": 4375,
      "iction": 4376,
      "Ġcurt": 4377,
      "LETON": 4378,
      "Ġ1892": 4379,
      "Ġ1893": 4380,
      "Ġ1895": 4381,
      "Ġinfant": 4382,
      "Ġinstance": 4383,
      "Ġcreation": 4384,
      "Ġcritics": 4385,
      "Ġproudly": 4386,
      "Ġmirror": 4387,
      "Ġcrowned": 4388,
      "ECHE": 4389,
      "Ġliterary": 4390,
      "Ġprofess": 4391,
      "Ġlisten": 4392,
      "Ġsenses": 4393,
      "Ġfigures": 4394,
      "Ġsuddenly": 4395,
      "Ġwarrior": 4396,
      "Ġteach": 4397,
      "Ġfeatures": 4398,
      "ĠPhoebus": 4399,
      "ĠArnold": 4400,
      "ĠMIDDLETON": 4401,
      "55": 4402,
      "Like": 4403,
      "MAN": 4404,
      "UL": 4405,
      "bing": 4406,
      "ford": 4407,
      "ias": 4408,
      "morrow": 4409,
      "oft": 4410,
      "phe": 4411,
      "tree": 4412,
      "uce": 4413,
      "va": 4414,
      "vest": 4415,
      "held": 4416,
      "rets": 4417,
      "Ġought": 4418,
      "Ġbud": 4419,
      "Ġmot": 4420,
      "Ġmention": 4421,
      "Ġlest": 4422,
      "Ġlink": 4423,
      "Ġlyr": 4424,
      "Ġcoun": 4425,
      "arms": 4426,
      "Ġpens": 4427,
      "Ġpains": 4428,
      "Ġnon": 4429,
      "Ġthrew": 4430,
      "Ġthird": 4431,
      "Ġgrou": 4432,
      "sequ": 4433,
      "ĠWHE": 4434,
      "ĠWhether": 4435,
      "ĠWAG": 4436,
      "ĠSam": 4437,
      "ldom": 4438,
      "ria": 4439,
      "ĠHen": 4440,
      "ĠHaving": 4441,
      "ĠMos": 4442,
      "ĠFanny": 4443,
      "ĠFUD": 4444,
      "ĠLALLA": 4445,
      "ĠCr": 4446,
      "ĠCAL": 4447,
      "Ġwept": 4448,
      "ĠPeace": 4449,
      "ĠNat": 4450,
      "ĠNove": 4451,
      "ĠEV": 4452,
      "ĠEX": 4453,
      "ĠEs": 4454,
      "Ġsubt": 4455,
      "Ġ12": 4456,
      "Ġneat": 4457,
      "ieve": 4458,
      "istory": 4459,
      "_,\"": 4460,
      "Ġsage": 4461,
      "Ġalike": 4462,
      "Ġfaces": 4463,
      "Ġtranqu": 4464,
      "Ġprocess": 4465,
      "cian": 4466,
      "Ġchoose": 4467,
      "Ġchosen": 4468,
      "ollow": 4469,
      "Ġpoetic": 4470,
      "Ġdesert": 4471,
      "Ġslight": 4472,
      "Ġprey": 4473,
      "Ġprefer": 4474,
      "!\"--": 4475,
      "ĠSpring": 4476,
      "ĠShad": 4477,
      "Ġfeels": 4478,
      "Ġcharge": 4479,
      "Ġfriendship": 4480,
      "Ġdramatic": 4481,
      "Ġpleased": 4482,
      "Ġpleasures": 4483,
      "Ġtreasure": 4484,
      "Ġrule": 4485,
      "Ġdeadly": 4486,
      "ĠPoor": 4487,
      "Ġfondly": 4488,
      "Ġmerit": 4489,
      "Ġconfess": 4490,
      "Ġfellow": 4491,
      "ĠChristians": 4492,
      "Ġspeeches": 4493,
      "Ġdecay": 4494,
      "Ġvolume": 4495,
      "Ġdriven": 4496,
      "Ġphys": 4497,
      "Ġvengeance": 4498,
      "Ġfigure": 4499,
      "Ġtyrant": 4500,
      "Ġcircle": 4501,
      "Ġremembered": 4502,
      "Ġmystic": 4503,
      "Ġapart": 4504,
      "Ġromantic": 4505,
      "Ġhorns": 4506,
      "ĠCONT": 4507,
      "OOKH": 4508,
      "ĠReligion": 4509,
      "ĠLOVE": 4510,
      "ĠGerman": 4511,
      "ĠLiberty": 4512,
      "ĠWAGNER": 4513,
      "47": 4514,
      "AF": 4515,
      "AIR": 4516,
      "RY": 4517,
      "YW": 4518,
      "_.--": 4519,
      "abl": 4520,
      "bon": 4521,
      "do": 4522,
      "eenth": 4523,
      "iqu": 4524,
      "nes": 4525,
      "pse": 4526,
      "when": 4527,
      "Ġtu": 4528,
      "Ġobl": 4529,
      "Ġwre": 4530,
      "Ġbank": 4531,
      "Ġbitter": 4532,
      "orse": 4533,
      "Ġparent": 4534,
      "Ġdust": 4535,
      "Ġdrew": 4536,
      "Ġdazz": 4537,
      "ĠAfter": 4538,
      "Ġnamed": 4539,
      "omas": 4540,
      "ĠIll": 4541,
      "Ġgild": 4542,
      "ĠBes": 4543,
      "ĠMary": 4544,
      "Ġlift": 4545,
      "ĠFly": 4546,
      "Ġreverend": 4547,
      "hern": 4548,
      "Ġshout": 4549,
      "Ġshield": 4550,
      "Ġang": 4551,
      "ulgar": 4552,
      "ĠROOKH": 4553,
      "ĠGr": 4554,
      "umin": 4555,
      "Ġblind": 4556,
      "reathed": 4557,
      "Ġarg": 4558,
      "ĠVII": 4559,
      "aud": 4560,
      "Ġchair": 4561,
      "Ġusual": 4562,
      "Ġwhate": 4563,
      "acher": 4564,
      "Ġenem": 4565,
      "perate": 4566,
      "Ġadore": 4567,
      "ANN": 4568,
      "Ġspiritual": 4569,
      "Ġsuppl": 4570,
      "Ġenth": 4571,
      "Ġcreative": 4572,
      "Ġboast": 4573,
      "RIT": 4574,
      "Ġterm": 4575,
      "ĠMEPHISTOPHILIS": 4576,
      "IGHT": 4577,
      "Ġgardens": 4578,
      "Ġjoin": 4579,
      "ĠRoman": 4580,
      "Ġsyst": 4581,
      "Ġsplendid": 4582,
      "Ġwretch": 4583,
      "Ġdirect": 4584,
      "ĠPaul": 4585,
      "ĠBacchus": 4586,
      "32": 4587,
      "49": 4588,
      "66": 4589,
      "80": 4590,
      "Ed": 4591,
      "OS": 4592,
      "Qu": 4593,
      "UT": 4594,
      "hib": 4595,
      "mo": 4596,
      "Ġsqu": 4597,
      "Ġbough": 4598,
      "Ġfright": 4599,
      "ision": 4600,
      "ishes": 4601,
      "oral": 4602,
      "Ġlent": 4603,
      "Ġciv": 4604,
      "Ġpot": 4605,
      "Ġpilg": 4606,
      "ĠTECHE": 4607,
      "Ġdw": 4608,
      "Ġdom": 4609,
      "ĠAway": 4610,
      "ĠImp": 4611,
      "Ġeight": 4612,
      "ication": 4613,
      "ĠWH": 4614,
      "ĠSu": 4615,
      "Ġbears": 4616,
      "ĠBen": 4617,
      "ĠBall": 4618,
      "ĠBrit": 4619,
      "ĠHom": 4620,
      "ĠMen": 4621,
      "ĠMad": 4622,
      "Ġreven": 4623,
      "aming": 4624,
      "Ġvile": 4625,
      "ĠDon": 4626,
      "Ġshown": 4627,
      "Ġrays": 4628,
      "astic": 4629,
      "ĠThomas": 4630,
      "ĠGold": 4631,
      "Ġworn": 4632,
      "pping": 4633,
      "ighed": 4634,
      "ĠInst": 4635,
      "Ġjudge": 4636,
      "ĠValley": 4637,
      "Ġcanst": 4638,
      "Ġquiver": 4639,
      "Ġpros": 4640,
      "Ġproduced": 4641,
      "cip": 4642,
      "Ġthank": 4643,
      "uded": 4644,
      "Ġsunset": 4645,
      "igns": 4646,
      "Ġmoves": 4647,
      "Ġaffection": 4648,
      "LLES": 4649,
      "Ġprize": 4650,
      "Ġpriests": 4651,
      "Ġfalling": 4652,
      "ogue": 4653,
      "Ġguide": 4654,
      "Ġwants": 4655,
      "Ġboard": 4656,
      "Ġvisions": 4657,
      "Ġshadows": 4658,
      "ĠPoems": 4659,
      "Ġcarry": 4660,
      "twill": 4661,
      "Ġdepart": 4662,
      "velop": 4663,
      "Ġfruits": 4664,
      "ĠAbout": 4665,
      "Ġsprung": 4666,
      "Ġdoomed": 4667,
      "Ġsocial": 4668,
      "Ġspoken": 4669,
      "Ġcontempor": 4670,
      "Ġfavorite": 4671,
      "ĠBishops": 4672,
      "Ġintellectual": 4673,
      "Ġpearl": 4674,
      "Ġquiet": 4675,
      "Ġsacrifice": 4676,
      "ĠPrincess": 4677,
      "ĠProphet": 4678,
      "Ġessential": 4679,
      "ĠROBIN": 4680,
      "ĠNovember": 4681,
      "YWOOD": 4682,
      "ĠTECHELLES": 4683,
      "**": 4684,
      "57": 4685,
      "All": 4686,
      "AIN": 4687,
      "Come": 4688,
      "Do": 4689,
      "DLA": 4690,
      "OD": 4691,
      "Will": 4692,
      "bu": 4693,
      "cing": 4694,
      "kin": 4695,
      "kers": 4696,
      "mitted": 4697,
      "will": 4698,
      "xious": 4699,
      "yp": 4700,
      "Ãª": 4701,
      "Ġtable": 4702,
      "Ġast": 4703,
      "Ġsets": 4704,
      "Ġoath": 4705,
      "eries": 4706,
      "had": 4707,
      "Ġbull": 4708,
      "Ġfoes": 4709,
      "Ġmult": 4710,
      "itor": 4711,
      "onn": 4712,
      "ency": 4713,
      "Ġlore": 4714,
      "Ġlays": 4715,
      "Ġlands": 4716,
      "Ġlying": 4717,
      "Ġcreed": 4718,
      "Ġpet": 4719,
      "Ġpars": 4720,
      "Ġpages": 4721,
      "Ġdu": 4722,
      "Ġdig": 4723,
      "ĠAc": 4724,
      "ĠAcc": 4725,
      "ĠAug": 4726,
      "atic": 4727,
      "Ġthreat": 4728,
      "vels": 4729,
      "Ġevid": 4730,
      "ĠWander": 4731,
      "ĠWynd": 4732,
      "lymp": 4733,
      "ĠOut": 4734,
      "Ġstone": 4735,
      "Ġstock": 4736,
      "ĠMer": 4737,
      "ĠMart": 4738,
      "ĠMars": 4739,
      "ĠFire": 4740,
      "Ġrealm": 4741,
      "ĠLast": 4742,
      "Ġascend": 4743,
      "ĠCons": 4744,
      "Ġweight": 4745,
      "Ġallow": 4746,
      "ainted": 4747,
      "ilty": 4748,
      "Ġseat": 4749,
      "ĠEvil": 4750,
      "ĠGent": 4751,
      "ĠGive": 4752,
      "Ġkill": 4753,
      "elic": 4754,
      "Ġblight": 4755,
      "Ġsharp": 4756,
      "Ġflash": 4757,
      ".\")": 4758,
      "athy": 4759,
      "Ġunseen": 4760,
      "ĠVer": 4761,
      "Ġdoct": 4762,
      "Ġrove": 4763,
      "ending": 4764,
      "Ġago": 4765,
      "Ġamorous": 4766,
      "Ġlegs": 4767,
      "Ġtwenty": 4768,
      "iii": 4769,
      "AND": 4770,
      "Ġpassed": 4771,
      "Ġreader": 4772,
      "Ġcharmed": 4773,
      "ĠFaith": 4774,
      "ĠOnly": 4775,
      "Ġpriest": 4776,
      "Ġrepose": 4777,
      "Ġresol": 4778,
      "Ġ1897": 4779,
      "ĠFADLA": 4780,
      "ibly": 4781,
      "Ġsuppose": 4782,
      "Ġrecall": 4783,
      "Ġtemple": 4784,
      "Ġopinion": 4785,
      "Ġsimply": 4786,
      "Ġeloqu": 4787,
      "DEEN": 4788,
      "Ġmerry": 4789,
      "Ġgross": 4790,
      "Ġbegun": 4791,
      "Ġstreets": 4792,
      "Ġstrike": 4793,
      "Ġdevils": 4794,
      "Ġbeginning": 4795,
      "ridge": 4796,
      "Ġdespair": 4797,
      "Ġlabour": 4798,
      "Ġlimbs": 4799,
      "Ġreceive": 4800,
      "ĠTurk": 4801,
      "Ġfaded": 4802,
      "Ġfading": 4803,
      "ĠFeb": 4804,
      "ĠCastle": 4805,
      "DERICK": 4806,
      "Ġfairest": 4807,
      "Ġdisplay": 4808,
      "Ġrhetoric": 4809,
      "Ġfemale": 4810,
      "Ġglittering": 4811,
      "Ġhymn": 4812,
      "ĠFREDERICK": 4813,
      "ĠWyndham": 4814,
      "):": 4815,
      "Or": 4816,
      "UB": 4817,
      "bre": 4818,
      "gress": 4819,
      "ker": 4820,
      "lo": 4821,
      "vation": 4822,
      "zes": 4823,
      "Ġtents": 4824,
      "Ġsly": 4825,
      "Ġsour": 4826,
      "Ġode": 4827,
      "Ġbal": 4828,
      "Ġbene": 4829,
      "Ġfanc": 4830,
      "isin": 4831,
      "onel": 4832,
      "Ġcre": 4833,
      "Ġcred": 4834,
      "Ġcelestial": 4835,
      "inging": 4836,
      "Ġpour": 4837,
      "Ġhears": 4838,
      "Ġeas": 4839,
      "ĠSEC": 4840,
      "ĠSaints": 4841,
      "ethan": 4842,
      "ĠOisin": 4843,
      "imb": 4844,
      "raw": 4845,
      "Ġstop": 4846,
      "uses": 4847,
      "Ġreward": 4848,
      "Ġrenown": 4849,
      "Ġweek": 4850,
      "ĠĠĠĠĠĠĠĠĠĠĠ": 4851,
      "Ġdem": 4852,
      "ĠProt": 4853,
      "thly": 4854,
      "Ġvulgar": 4855,
      "erson": 4856,
      "ĠDa": 4857,
      "ĠEld": 4858,
      "Ġshut": 4859,
      "Ġshock": 4860,
      "ĠThr": 4861,
      "ĠGhe": 4862,
      "ĠGard": 4863,
      "Ġflows": 4864,
      "Ġplains": 4865,
      "Ġ(\"": 4866,
      "urns": 4867,
      "Ġchap": 4868,
      "aged": 4869,
      "Ġprov": 4870,
      "Ġagree": 4871,
      "acy": 4872,
      "Ġeverything": 4873,
      "Ġparty": 4874,
      "Ġgovern": 4875,
      "Ġbeauteous": 4876,
      "ART": 4877,
      "Ġcontro": 4878,
      "ĠBehold": 4879,
      "Ġslept": 4880,
      "Ġoffer": 4881,
      "Ġlaure": 4882,
      "Ġpecul": 4883,
      "Ġhappiest": 4884,
      "Ġrepresent": 4885,
      "Ġstranger": 4886,
      "Thy": 4887,
      "Ġsighing": 4888,
      "Ġdelights": 4889,
      "Ġwanted": 4890,
      "Ġtemper": 4891,
      "Ġboat": 4892,
      "Ġpresently": 4893,
      "Ġgraceful": 4894,
      "Ġasked": 4895,
      "Ġmode": 4896,
      "Ġterror": 4897,
      "Ġstreams": 4898,
      "Ġincre": 4899,
      "ĠSeven": 4900,
      "Ġquickly": 4901,
      "Ġlatter": 4902,
      "Ġ60": 4903,
      "ĠPeers": 4904,
      "Ġechoes": 4905,
      "Ġdescription": 4906,
      "Ġreceived": 4907,
      "Ġsociety": 4908,
      "ĠSecond": 4909,
      "Ġuntil": 4910,
      "Ġbusiness": 4911,
      "ĠCountess": 4912,
      "ĠPoetry": 4913,
      "Ġimpressions": 4914,
      "ĠXXX": 4915,
      "ĠHEYWOOD": 4916,
      "ĠLoves": 4917,
      "Ġexperience": 4918,
      "Ġharmony": 4919,
      "ĠElizabethan": 4920,
      "Ġgoblet": 4921,
      "ĠWanderings": 4922,
      "ĠFADLADEEN": 4923,
      "Ġpeculiar": 4924,
      "58": 4925,
      "At": 4926,
      "ait": 4927,
      "com": 4928,
      "cure": 4929,
      "ked": 4930,
      "met": 4931,
      "must": 4932,
      "miss": 4933,
      "non": 4934,
      "ration": 4935,
      "Ġties": 4936,
      "Ġtort": 4937,
      "Ġaud": 4938,
      "Ġaction": 4939,
      "Ġsits": 4940,
      "Ġcrew": 4941,
      "Ġpause": 4942,
      "Ġprison": 4943,
      "ĠTe": 4944,
      "Ġdiam": 4945,
      "Ġtoil": 4946,
      "aning": 4947,
      "ĠAZ": 4948,
      "Ġnupt": 4949,
      "ĠIm": 4950,
      "vey": 4951,
      "Ġeasy": 4952,
      "icy": 4953,
      "ĠWoods": 4954,
      "utumn": 4955,
      "Ġbells": 4956,
      "Ġhail": 4957,
      "Ġhaunt": 4958,
      "Ġhalls": 4959,
      "ĠOlymp": 4960,
      "rase": 4961,
      "Ġstore": 4962,
      "Ġisles": 4963,
      "ĠFort": 4964,
      "ros": 4965,
      "ushing": 4966,
      "ĠChe": 4967,
      "ĠCont": 4968,
      "ĠĠĠĠĠĠĠĠĠĠĠĠĠ": 4969,
      "ĠPre": 4970,
      "eav": 4971,
      "Ġmyr": 4972,
      "Ġvent": 4973,
      "Ġvows": 4974,
      "Ġseldom": 4975,
      "ĠEle": 4976,
      "Ġrites": 4977,
      "Ġspent": 4978,
      "Ġ11": 4979,
      "tering": 4980,
      "olen": 4981,
      "Ġwholly": 4982,
      "Ġplant": 4983,
      "Ġwhence": 4984,
      "ĠJul": 4985,
      "ĠJoy": 4986,
      "Ġimit": 4987,
      "Ġqueen": 4988,
      "bler": 4989,
      "ags": 4990,
      "Ġrain": 4991,
      "Ġperfection": 4992,
      "ressed": 4993,
      "Ġartic": 4994,
      "Ġpartly": 4995,
      "Ġ27": 4996,
      "orses": 4997,
      "ĠReeds": 4998,
      "ORE": 4999,
      "Ġdeliber": 5000,
      "Ġturning": 5001,
      "Ġbreathes": 5002,
      "Ġairs": 5003,
      "ĠArist": 5004,
      "Ġendeav": 5005,
      "Ġkindly": 5006,
      "Ġgrasp": 5007,
      "ĠLetter": 5008,
      "Ġruined": 5009,
      "ĠYouth": 5010,
      "Ġguilt": 5011,
      "ĠĠĠĠĠĠĠĠĠĠĠĠĠĠĠĠĠĠĠĠĠĠĠĠĠĠĠ": 5012,
      "Ġmeeting": 5013,
      "Ġtemp": 5014,
      "Ġcareless": 5015,
      "airs": 5016,
      "attered": 5017,
      "ĠCloth": 5018,
      "Ġcommun": 5019,
      "Ġdiscover": 5020,
      "Ġshores": 5021,
      "Ġerror": 5022,
      "Ġregion": 5023,
      "Ġbelieved": 5024,
      "ĠProf": 5025,
      "ĠApoll": 5026,
      "Ġwaked": 5027,
      "Ġwaking": 5028,
      "Ġpublished": 5029,
      "Ġwhisp": 5030,
      "Ġvalue": 5031,
      "ENTS": 5032,
      "Ġphrase": 5033,
      "ĠChap": 5034,
      "Ġwonders": 5035,
      "Ġcircum": 5036,
      "Ġwisdom": 5037,
      "Ġmingled": 5038,
      "iversity": 5039,
      "ĠMemory": 5040,
      "Ġdangerous": 5041,
      "Ġviol": 5042,
      "Ġrhyme": 5043,
      "Ġjudgment": 5044,
      "Ġprobably": 5045,
      "Ġecst": 5046,
      "ĠAMYR": 5047,
      "Ġdreary": 5048,
      "Ġgifts": 5049,
      "ĠHanrahan": 5050,
      "ĠFUDGE": 5051,
      "Ġnuptial": 5052,
      "ĠAMYRAS": 5053,
      ")--": 5054,
      "59": 5055,
      "His": 5056,
      "Now": 5057,
      "PINE": 5058,
      "TIN": 5059,
      "VI": 5060,
      "_).": 5061,
      "agh": 5062,
      "cer": 5063,
      "fall": 5064,
      "liness": 5065,
      "rary": 5066,
      "uct": 5067,
      "Ġ....": 5068,
      "inity": 5069,
      "rey": 5070,
      "hast": 5071,
      "Ġbodies": 5072,
      "Ġfears": 5073,
      "Ġfinger": 5074,
      "Ġmould": 5075,
      "oran": 5076,
      "Ġcow": 5077,
      "Ġcamp": 5078,
      "Ġcunning": 5079,
      "Ġdign": 5080,
      "ĠAf": 5081,
      "ĠAnt": 5082,
      "Ġhush": 5083,
      "Ġhollow": 5084,
      "lem": 5085,
      "Ġgates": 5086,
      "sell": 5087,
      "iration": 5088,
      "imate": 5089,
      "raph": 5090,
      "ĠHour": 5091,
      "ĠHung": 5092,
      "Ġliqu": 5093,
      "verse": 5094,
      "ĠFame": 5095,
      "ĠFER": 5096,
      "room": 5097,
      "ading": 5098,
      "ĠLib": 5099,
      "ĠCham": 5100,
      "ĠCÃĬ": 5101,
      "ĠCALLA": 5102,
      "Ġdeed": 5103,
      "Ġdevelop": 5104,
      "ĠPhil": 5105,
      "Ġvig": 5106,
      "Ġseason": 5107,
      "Ġrough": 5108,
      "ulation": 5109,
      "ĠThree": 5110,
      "Ġnect": 5111,
      "ĠGa": 5112,
      "Ġblaz": 5113,
      "oles": 5114,
      "olia": 5115,
      "Ġflowing": 5116,
      "Ġflatter": 5117,
      "Ġshel": 5118,
      "Ġfail": 5119,
      "Ġjew": 5120,
      "Ġroad": 5121,
      "ĠWithout": 5122,
      "Ġscent": 5123,
      "Ġappre": 5124,
      "onscious": 5125,
      "Ġ180": 5126,
      "Ġsla": 5127,
      "Ġprec": 5128,
      "ĠUnt": 5129,
      "ANT": 5130,
      "Ġmoving": 5131,
      "Ġimposs": 5132,
      "ierce": 5133,
      "ĠBecause": 5134,
      "Ġbecomes": 5135,
      "Ġhappier": 5136,
      "Ġrepent": 5137,
      "Those": 5138,
      "soci": 5139,
      "Ġtriump": 5140,
      "Ġtremble": 5141,
      "Ġsleeps": 5142,
      "Ġbrief": 5143,
      "Ġdistur": 5144,
      "Ġmatters": 5145,
      "ATION": 5146,
      "Ġreligious": 5147,
      "Ġpursue": 5148,
      "Which": 5149,
      "ĠScarce": 5150,
      "Ġgrim": 5151,
      "Ġcharming": 5152,
      "Ġkisses": 5153,
      "hetic": 5154,
      "Ġmovement": 5155,
      "Ġholds": 5156,
      "Ġflowery": 5157,
      "Ġreturned": 5158,
      "Ġwonderful": 5159,
      "Ġforeign": 5160,
      "Ġfamily": 5161,
      "Ġtorment": 5162,
      "Ġbegins": 5163,
      "Ġelement": 5164,
      "ĠHaram": 5165,
      "Ġfloor": 5166,
      "Ġdamn": 5167,
      "Ġappearance": 5168,
      "Ġfiery": 5169,
      "Ġtrod": 5170,
      "Ġtroops": 5171,
      "Ġwretched": 5172,
      "Ġfortune": 5173,
      "Ġdelicate": 5174,
      "Ġiron": 5175,
      "Ġgarland": 5176,
      "Ġ----.": 5177,
      "Ġdissol": 5178,
      "Ġchaste": 5179,
      "Ġfurther": 5180,
      "ĠCatholic": 5181,
      "ĠWoman": 5182,
      "ĠLatin": 5183,
      "ividual": 5184,
      "ĠWHEN": 5185,
      "ĠHomer": 5186,
      "ĠApollo": 5187,
      "ĠCALLAPINE": 5188,
      "46": 5189,
      ":âĢĶ": 5190,
      "OC": 5191,
      "TR": 5192,
      "even": 5193,
      "gues": 5194,
      "house": 5195,
      "rong": 5196,
      "rust": 5197,
      "sy": 5198,
      "sha": 5199,
      "Ġ...": 5200,
      "heart": 5201,
      "iny": 5202,
      "Ġsed": 5203,
      "Ġsister": 5204,
      "Ġscience": 5205,
      "Ġobs": 5206,
      "ĠTom": 5207,
      "ĠTri": 5208,
      "Ġdish": 5209,
      "Ġdrown": 5210,
      "ann": 5211,
      "Ġhouses": 5212,
      "Ġgull": 5213,
      "Ġgems": 5214,
      "Ġevil": 5215,
      "Ġevent": 5216,
      "ĠSaid": 5217,
      "ĠBring": 5218,
      "Ġasp": 5219,
      "ĠColl": 5220,
      "ester": 5221,
      "Ġvale": 5222,
      "ĠDis": 5223,
      "Ġspe": 5224,
      "ĠRu": 5225,
      "Ġorn": 5226,
      "Ġblaze": 5227,
      "Ġflour": 5228,
      "osp": 5229,
      "istic": 5230,
      "Ġfault": 5231,
      "ardon": 5232,
      "Ġexhib": 5233,
      "Ġunb": 5234,
      "ĠVIII": 5235,
      "Ġtruly": 5236,
      "ulled": 5237,
      "HER": 5238,
      "Ġsweetest": 5239,
      "Ġheavy": 5240,
      "olly": 5241,
      "ĠKnight": 5242,
      "ĠIsle": 5243,
      "Ġtrade": 5244,
      "Ġtragedy": 5245,
      "ĠRegent": 5246,
      "ISH": 5247,
      "ISS": 5248,
      "Ġnorth": 5249,
      "Ġserved": 5250,
      "ibility": 5251,
      "Ġ1900": 5252,
      "Ġattend": 5253,
      "Ġwindow": 5254,
      "Ġdouble": 5255,
      "Ġdelightful": 5256,
      "Ġprayers": 5257,
      "ĠXL": 5258,
      "Ġimages": 5259,
      "Ġidle": 5260,
      "Ġbegu": 5261,
      "umbered": 5262,
      "Ġblooming": 5263,
      "Ġsurely": 5264,
      "Ġprofound": 5265,
      "Ġacqu": 5266,
      "Ġsubjects": 5267,
      "Ġeleg": 5268,
      "Ġprot": 5269,
      "Ġhangs": 5270,
      "Ġplanet": 5271,
      "Ġschol": 5272,
      "Ġmystery": 5273,
      "Ġbusy": 5274,
      "Ġsymbol": 5275,
      "Ġpolitical": 5276,
      "Ġdegree": 5277,
      "Ġmethod": 5278,
      "Ġrainbow": 5279,
      "Ġdinner": 5280,
      "Ġfront": 5281,
      "Ġmagnific": 5282,
      "ĠCourt": 5283,
      "Ġdrunk": 5284,
      "Ġevents": 5285,
      "Ġsubtle": 5286,
      "Ġsystem": 5287,
      "ĠEldon": 5288,
      "ĠCÃĬsar": 5289,
      "56": 5290,
      "con": 5291,
      "hi": 5292,
      "just": 5293,
      "mar": 5294,
      "sm": 5295,
      "inet": 5296,
      "rels": 5297,
      "Ġoriginally": 5298,
      "Ġwall": 5299,
      "hael": 5300,
      "isdom": 5301,
      "Ġment": 5302,
      "Ġmort": 5303,
      "ork": 5304,
      "ara": 5305,
      "Ġdry": 5306,
      "vet": 5307,
      "ĠWRIT": 5308,
      "ĠSC": 5309,
      "asc": 5310,
      "rian": 5311,
      "ĠBr": 5312,
      "ĠOH": 5313,
      "raid": 5314,
      "Ġstick": 5315,
      "ĠHamlet": 5316,
      "ĠMeth": 5317,
      "ĠFill": 5318,
      "ĠFate": 5319,
      "ĠFull": 5320,
      "ushed": 5321,
      "Ġrev": 5322,
      "Ġreview": 5323,
      "amps": 5324,
      "ĠLes": 5325,
      "ĠCat": 5326,
      "Ġallowed": 5327,
      "ĠPER": 5328,
      "Ġseal": 5329,
      "ĠES": 5330,
      "ĠElys": 5331,
      "Ġshop": 5332,
      "ulf": 5333,
      "Ġneeds": 5334,
      "Ġarmy": 5335,
      "Ġplumes": 5336,
      "Ġswall": 5337,
      "ooks": 5338,
      "Ġpoison": 5339,
      "Ġknight": 5340,
      "ĠJer": 5341,
      "Ġcomfort": 5342,
      "Ġsomewhat": 5343,
      "ĠVill": 5344,
      "dered": 5345,
      "aks": 5346,
      "Ġscour": 5347,
      "Ġsweeter": 5348,
      "IND": 5349,
      "Ġtwine": 5350,
      "angled": 5351,
      "ENE": 5352,
      "Ġhark": 5353,
      "ĠNorth": 5354,
      "Ġplaying": 5355,
      "Ġdraws": 5356,
      "ĠDevil": 5357,
      "Ġended": 5358,
      "Ġendless": 5359,
      "ĠAlong": 5360,
      "izon": 5361,
      "Ġattention": 5362,
      "ICA": 5363,
      "Ġsupply": 5364,
      "Ġgently": 5365,
      "Ġpainted": 5366,
      "Ġcareer": 5367,
      "Ġwandered": 5368,
      "Ġlearning": 5369,
      "ĠUniversity": 5370,
      "ĠClub": 5371,
      "Ġbreaks": 5372,
      "Ġviews": 5373,
      "Ġspeaking": 5374,
      "ĠZen": 5375,
      "ounce": 5376,
      "Ġextreme": 5377,
      "Ġinteresting": 5378,
      "Ġwondering": 5379,
      "Ġcircl": 5380,
      "ipping": 5381,
      "brance": 5382,
      "Ġauthors": 5383,
      "Ġdwells": 5384,
      "Ġunderstood": 5385,
      "Ġborne": 5386,
      "Ġsuffer": 5387,
      "Ġsnowy": 5388,
      "Ġcentre": 5389,
      "ĠMARTIN": 5390,
      "Ġequal": 5391,
      "ĠNext": 5392,
      "Ġconqueror": 5393,
      "Ġtranslation": 5394,
      "Ġdelicious": 5395,
      "ĠMurray": 5396,
      "athered": 5397,
      "Ġglimpse": 5398,
      "Ġmasters": 5399,
      "ylon": 5400,
      "ĠAmerican": 5401,
      "Ġimmediately": 5402,
      "Ġdifficult": 5403,
      "ĠBabylon": 5404,
      "ĠTemple": 5405,
      "AFED": 5406,
      "Ġcivil": 5407,
      "Ġdwelt": 5408,
      "ĠSECOND": 5409,
      "ĠProtest": 5410,
      "Ġdiamond": 5411,
      "Ġmyrtle": 5412,
      "Ġimpossible": 5413,
      "ĠMARTINO": 5414,
      "190": 5415,
      "AH": 5416,
      "Al": 5417,
      "CT": 5418,
      "Old": 5419,
      "Sir": 5420,
      "ban": 5421,
      "bell": 5422,
      "des": 5423,
      "ege": 5424,
      "mine": 5425,
      "nor": 5426,
      "sc": 5427,
      "tha": 5428,
      "wood": 5429,
      "wixt": 5430,
      "yth": 5431,
      "Ġtie": 5432,
      "heres": 5433,
      "rene": 5434,
      "Ġorient": 5435,
      "Ġwove": 5436,
      "haw": 5437,
      "Ġben": 5438,
      "Ġfold": 5439,
      "ising": 5440,
      "isure": 5441,
      "Ġmant": 5442,
      "esy": 5443,
      "Ġpine": 5444,
      "Ġpious": 5445,
      "Ġded": 5446,
      "Ġtoward": 5447,
      "Ġnose": 5448,
      "Ġthron": 5449,
      "lex": 5450,
      "Ġgale": 5451,
      "Ġgiving": 5452,
      "otle": 5453,
      "Ġbeheld": 5454,
      "asury": 5455,
      "ĠBR": 5456,
      "Ġstern": 5457,
      "ĠHy": 5458,
      "ĠHon": 5459,
      "ĠMoon": 5460,
      "ĠFer": 5461,
      "ĠFle": 5462,
      "ĠFount": 5463,
      "rose": 5464,
      "Ġrej": 5465,
      "Ġreached": 5466,
      "Ġfors": 5467,
      "Ġforced": 5468,
      "ĠLE": 5469,
      "ĠCal": 5470,
      "ĠCra": 5471,
      "ĠCash": 5472,
      "oos": 5473,
      "ĠPal": 5474,
      "ĠPart": 5475,
      "Ġsovere": 5476,
      "ĠNed": 5477,
      "ĠDian": 5478,
      "Ġshowed": 5479,
      "Ġanxious": 5480,
      "Ġspace": 5481,
      "ĠRob": 5482,
      "ppy": 5483,
      "Ġflung": 5484,
      "Ġflames": 5485,
      "ode": 5486,
      "Ġard": 5487,
      "Ġarray": 5488,
      "Ġshell": 5489,
      "Ġpoints": 5490,
      "ĠJew": 5491,
      "Ġeyel": 5492,
      "Ġtrance": 5493,
      "Ġwhatso": 5494,
      "aken": 5495,
      "Ġque": 5496,
      "ritten": 5497,
      "Ġawake": 5498,
      "Ġenvy": 5499,
      "ERE": 5500,
      "ERN": 5501,
      "ivity": 5502,
      "Ġdeser": 5503,
      "Ġdesperate": 5504,
      "Ġtraced": 5505,
      "END": 5506,
      "Ġpasses": 5507,
      "Ġjoyous": 5508,
      "Ġbreathing": 5509,
      "Ġairy": 5510,
      "Ġdramat": 5511,
      "Ġmaidens": 5512,
      "Ġride": 5513,
      "Ġyouths": 5514,
      "Ġsilvery": 5515,
      "ĠNote": 5516,
      "Ġsett": 5517,
      "Ġburns": 5518,
      "Ġdistance": 5519,
      "Ġfollowed": 5520,
      "Ġmiddle": 5521,
      "Ġcopies": 5522,
      "ĠBlest": 5523,
      "Ġimagin": 5524,
      "Ġancients": 5525,
      "Ġterms": 5526,
      "ounced": 5527,
      "Ġindividual": 5528,
      "Ġpersonality": 5529,
      "Ġcorre": 5530,
      "Ġvirtues": 5531,
      "Ġfaithful": 5532,
      "ippers": 5533,
      "Ġ--_": 5534,
      "Notes": 5535,
      "Ġdevoted": 5536,
      "ĠHarp": 5537,
      "Twill": 5538,
      "ceeded": 5539,
      "Ġshadowy": 5540,
      "ĠTrans": 5541,
      "Ġfragments": 5542,
      "Ġtyrants": 5543,
      "Ġunderstanding": 5544,
      "Ġfleeting": 5545,
      "Ġutter": 5546,
      "Ġdarts": 5547,
      "Ġzone": 5548,
      "Ġcourage": 5549,
      "Ġ1889": 5550,
      "Ġimpression": 5551,
      "Ġfrequent": 5552,
      "ĠALLA": 5553,
      "Ġembrace": 5554,
      "Ġexcellent": 5555,
      "Ġkneel": 5556,
      "ĠSymons": 5557,
      "Ġinnocent": 5558,
      "ĠSavoy": 5559,
      "Ġrapid": 5560,
      "Ġexclaimed": 5561,
      "Ġinhabit": 5562,
      "ĠNatolia": 5563,
      "ĠShadow": 5564,
      "ĠCONTENTS": 5565,
      "Ġangry": 5566,
      "ĠAZIM": 5567,
      "Ġcircumst": 5568,
      "Ġecstasy": 5569,
      ":[": 5570,
      "ELE": 5571,
      "Irish": 5572,
      "OP": 5573,
      "_:": 5574,
      "gus": 5575,
      "gory": 5576,
      "kins": 5577,
      "lest": 5578,
      "pet": 5579,
      "page": 5580,
      "says": 5581,
      "zed": 5582,
      "ĠÂ": 5583,
      "Ġtresses": 5584,
      "Ġapt": 5585,
      "inite": 5586,
      "Ġwal": 5587,
      "Ġwished": 5588,
      "erable": 5589,
      "Ġfish": 5590,
      "Ġfury": 5591,
      "Ġmain": 5592,
      "Ġmess": 5593,
      "Ġcult": 5594,
      "Ġpalm": 5595,
      "Ġpulse": 5596,
      "Ġdeter": 5597,
      "Ġnations": 5598,
      "Ġhorses": 5599,
      "stand": 5600,
      "lection": 5601,
      "Ġgate": 5602,
      "othes": 5603,
      "ĠSomet": 5604,
      "cel": 5605,
      "ĠBer": 5606,
      "ĠBoy": 5607,
      "Ġstates": 5608,
      "idge": 5609,
      "ĠMo": 5610,
      "Ġlif": 5611,
      "usions": 5612,
      "aments": 5613,
      "ĠLAD": 5614,
      "unter": 5615,
      "eaks": 5616,
      "Ġvic": 5617,
      "Ġvot": 5618,
      "Ġvine": 5619,
      "Ġvague": 5620,
      "ĠNE": 5621,
      "ĠNile": 5622,
      "Ġsearch": 5623,
      "Ġshot": 5624,
      "Ġric": 5625,
      "Ġrust": 5626,
      "Ġrhy": 5627,
      "ckon": 5628,
      "Ġblame": 5629,
      "inds": 5630,
      "olate": 5631,
      "isted": 5632,
      "Ġsway": 5633,
      "Ġsages": 5634,
      "Ġaloft": 5635,
      "Ġfaults": 5636,
      "ishop": 5637,
      "Ġpock": 5638,
      "ĠYork": 5639,
      "ĠVir": 5640,
      "Ġimper": 5641,
      "Ġrob": 5642,
      "Ġquality": 5643,
      "Ġawe": 5644,
      "Ġsweets": 5645,
      "Ġsunbeam": 5646,
      "ĠTHEE": 5647,
      "Ġdesign": 5648,
      "anches": 5649,
      "Ġdisgra": 5650,
      "Ġwars": 5651,
      "ORY": 5652,
      "Ġwatched": 5653,
      "Ġbreed": 5654,
      "Ġthroughout": 5655,
      "AMOR": 5656,
      "Ġtrif": 5657,
      "Ġpowerful": 5658,
      "ĠIrishman": 5659,
      "Ġgrass": 5660,
      "Ġnearly": 5661,
      "Ġbrand": 5662,
      "Ġlively": 5663,
      "Ġwrath": 5664,
      "ATH": 5665,
      "Ġinfer": 5666,
      "Ġdelighted": 5667,
      "Ġpursu": 5668,
      "Ġinstrum": 5669,
      "unday": 5670,
      "ĠBlack": 5671,
      "OLD": 5672,
      "Ġmonst": 5673,
      "Ġsadness": 5674,
      "Ġrunning": 5675,
      "Ġrefined": 5676,
      "Ġlanguid": 5677,
      "ternal": 5678,
      "ĠPlay": 5679,
      "Ġbounds": 5680,
      "Ġvariety": 5681,
      "Ġacross": 5682,
      "Ġlistening": 5683,
      "ĠPerhaps": 5684,
      "Ġunconscious": 5685,
      "Ġfavour": 5686,
      "Ġflowere": 5687,
      "ĠPapists": 5688,
      "Ġcondem": 5689,
      "ĠCathleen": 5690,
      "Ġgallant": 5691,
      "Ġbleed": 5692,
      "Ġstatement": 5693,
      "Ġsuspect": 5694,
      "Ġsurpris": 5695,
      "Ġsurprise": 5696,
      "Ġarrived": 5697,
      "Ġintelligence": 5698,
      "ĠHelen": 5699,
      "ĠDOLLY": 5700,
      "ĠThoughts": 5701,
      "Ġblossoms": 5702,
      "Ġpledge": 5703,
      "Ġtranquil": 5704,
      "Ġwreck": 5705,
      "Ġenthus": 5706,
      "Ġeasily": 5707,
      "Ġliquid": 5708,
      "Ġrhyth": 5709,
      "AV": 5710,
      "ALE": 5711,
      "LD": 5712,
      "SER": 5713,
      "VIII": 5714,
      "af": 5715,
      "aun": 5716,
      "liam": 5717,
      "mal": 5718,
      "mond": 5719,
      "mere": 5720,
      "press": 5721,
      "rick": 5722,
      "rates": 5723,
      "side": 5724,
      "hel": 5725,
      "hered": 5726,
      "ino": 5727,
      "inus": 5728,
      "Ġsighed": 5729,
      "reagh": 5730,
      "Ġobey": 5731,
      "Ġwra": 5732,
      "Ġmour": 5733,
      "itious": 5734,
      "itors": 5735,
      "ora": 5736,
      "orus": 5737,
      "Ġlament": 5738,
      "Ġcal": 5739,
      "Ġcities": 5740,
      "Ġcovered": 5741,
      "Ġpant": 5742,
      "ĠTer": 5743,
      "anz": 5744,
      "atory": 5745,
      "athed": 5746,
      "Ġhover": 5747,
      "ĠIRAN": 5748,
      "icated": 5749,
      "ĠSid": 5750,
      "irl": 5751,
      "irty": 5752,
      "Ġbees": 5753,
      "rand": 5754,
      "ĠHOR": 5755,
      "Ġissue": 5756,
      "ĠMY": 5757,
      "ĠMuch": 5758,
      "ĠFit": 5759,
      "ĠFather": 5760,
      "aded": 5761,
      "ĠCur": 5762,
      "oop": 5763,
      "ĠPop": 5764,
      "ĠPure": 5765,
      "ĠPower": 5766,
      "ores": 5767,
      "Ġmyster": 5768,
      "Ġsect": 5769,
      "Ġsevere": 5770,
      "Ġshun": 5771,
      "Ġshower": 5772,
      "ĠWhig": 5773,
      "Ġtheirs": 5774,
      "Ġshaft": 5775,
      "Ġconsec": 5776,
      "Ġswim": 5777,
      "Ġsav": 5778,
      "ĠInt": 5779,
      "Ġalthough": 5780,
      "ardin": 5781,
      "Ġju": 5782,
      "orts": 5783,
      "ortun": 5784,
      "ĠVe": 5785,
      "ively": 5786,
      "ĠSoci": 5787,
      "deas": 5788,
      "Ġquest": 5789,
      "cient": 5790,
      "Ġyours": 5791,
      "Ġseeing": 5792,
      "Ġens": 5793,
      "Ġenam": 5794,
      "Ġbrightness": 5795,
      "ĠStreet": 5796,
      "pert": 5797,
      "Ġlean": 5798,
      "ruary": 5799,
      "ĠUnder": 5800,
      "ĠRev": 5801,
      "Ġheadlong": 5802,
      "ĠByron": 5803,
      "Ġrestless": 5804,
      "ĠShell": 5805,
      "Ġprime": 5806,
      "Ġhighly": 5807,
      "ASS": 5808,
      "izing": 5809,
      "ibus": 5810,
      "Ġ1904": 5811,
      "Ġmetaph": 5812,
      "ocrate": 5813,
      "reshold": 5814,
      "Ġimagined": 5815,
      "REAM": 5816,
      "Why": 5817,
      "Whose": 5818,
      "Ġcarried": 5819,
      "spap": 5820,
      "Ġsentiment": 5821,
      "Ġregard": 5822,
      "Ġregret": 5823,
      "Ġindul": 5824,
      "Ġextra": 5825,
      "Ġinterested": 5826,
      "Ġsparkle": 5827,
      "Ġleads": 5828,
      "Ġeste": 5829,
      "Ġfacts": 5830,
      "Ġblushes": 5831,
      "Ġbarbar": 5832,
      "Ġstruck": 5833,
      "Ġanswered": 5834,
      "Ġstealing": 5835,
      "Ġdestroy": 5836,
      "Ġremembrance": 5837,
      "ĠFairy": 5838,
      "Ġwishes": 5839,
      "Ġpromise": 5840,
      "Ġtrouble": 5841,
      "ĠBishop": 5842,
      "ĠEarth": 5843,
      "Ġfrequently": 5844,
      "Ġbeasts": 5845,
      "Ġfiend": 5846,
      "ĠDivine": 5847,
      "Ġprivate": 5848,
      "Ġdistinguished": 5849,
      "Ġenergy": 5850,
      "ĠMoslem": 5851,
      "Doctor": 5852,
      "ĠCastlereagh": 5853,
      "Ġwhispered": 5854,
      "ĠFERAMOR": 5855,
      "ĠSCENE": 5856,
      "ĠESQ": 5857,
      "ĠZenocrate": 5858,
      "ĠFERAMORZ": 5859,
      "44": 5860,
      "Ch": 5861,
      "Fa": 5862,
      "Mong": 5863,
      "VII": 5864,
      "YPH": 5865,
      "_\"": 5866,
      "bo": 5867,
      "bted": 5868,
      "from": 5869,
      "give": 5870,
      "hic": 5871,
      "lin": 5872,
      "nat": 5873,
      "pent": 5874,
      "pond": 5875,
      "round": 5876,
      "uine": 5877,
      "ĠÃł": 5878,
      "Ġaim": 5879,
      "Ġsand": 5880,
      "Ġobt": 5881,
      "eridge": 5882,
      "Ġfr": 5883,
      "Ġfid": 5884,
      "Ġfil": 5885,
      "Ġfood": 5886,
      "Ġmal": 5887,
      "itary": 5888,
      "llen": 5889,
      "Ġpaid": 5890,
      "Ġpoured": 5891,
      "ĠTit": 5892,
      "ĠTales": 5893,
      "Ġder": 5894,
      "Ġinward": 5895,
      "Ġnet": 5896,
      "Ġthither": 5897,
      "Ġhuge": 5898,
      "otten": 5899,
      "Ġbee": 5900,
      "Ġhap": 5901,
      "Ġhabit": 5902,
      "Ġstuff": 5903,
      "ĠHark": 5904,
      "ĠHence": 5905,
      "ĠMilt": 5906,
      "adem": 5907,
      "adies": 5908,
      "amph": 5909,
      "ĠCamb": 5910,
      "ĠCAST": 5911,
      "ĠPad": 5912,
      "ĠPress": 5913,
      "ĠPassion": 5914,
      "Ġves": 5915,
      "ĠDome": 5916,
      "ĠDest": 5917,
      "ĠDREAM": 5918,
      "Ġshri": 5919,
      "Ġshowers": 5920,
      "Ġrange": 5921,
      "Ġanger": 5922,
      "astes": 5923,
      "Ġspeaks": 5924,
      "ĠRO": 5925,
      "Ġorb": 5926,
      "Ġorgan": 5927,
      "Ġblows": 5928,
      "oping": 5929,
      "ols": 5930,
      "Ġarmed": 5931,
      "Ġfac": 5932,
      "ishment": 5933,
      "athleen": 5934,
      "ĠJO": 5935,
      "Ġtrick": 5936,
      "Ġrobe": 5937,
      "Ġquod": 5938,
      "Ġquaff": 5939,
      "bert": 5940,
      "idered": 5941,
      "Ġabst": 5942,
      "Ġaware": 5943,
      "Ġsche": 5944,
      "Ġscar": 5945,
      "Ġeng": 5946,
      "Ġperish": 5947,
      "Ġbrighter": 5948,
      "Ġdisse": 5949,
      "Ġdisapp": 5950,
      "Ġ25": 5951,
      "Ġslaughter": 5952,
      "ĠWeep": 5953,
      "Ġpassages": 5954,
      "ĠReform": 5955,
      "Ġcontra": 5956,
      "Ġfinds": 5957,
      "Ġdraught": 5958,
      "Ġstrings": 5959,
      "Ġcheck": 5960,
      "Ġpurest": 5961,
      "Ġguilty": 5962,
      "Ġgenuine": 5963,
      "Ġ1906": 5964,
      "Ġills": 5965,
      "Ġbrid": 5966,
      "Ġbloody": 5967,
      "Ġcompare": 5968,
      "Ġrecollect": 5969,
      "ĠĠĠĠĠĠĠĠĠĠĠĠĠĠĠĠĠĠĠĠĠĠĠĠĠĠĠĠĠ": 5970,
      "Ġdiff": 5971,
      "Ġpurity": 5972,
      "ĠWorld": 5973,
      "Ġbeaming": 5974,
      "chant": 5975,
      "Ġtransport": 5976,
      "Ġimagine": 5977,
      "ĠUnited": 5978,
      "Ġwarmth": 5979,
      "Ġmercy": 5980,
      "Ġhorror": 5981,
      "Ġregions": 5982,
      "ĠTHOU": 5983,
      "ĠVenice": 5984,
      "Ġaccept": 5985,
      "Ġbesides": 5986,
      "Ġwounds": 5987,
      "ĠPersians": 5988,
      "Ġfootst": 5989,
      "Ġsoldier": 5990,
      "Ġpencil": 5991,
      "Ġmelody": 5992,
      "Ġversion": 5993,
      "Ġgirls": 5994,
      "Ġenchant": 5995,
      "ĠColeridge": 5996,
      "Ġxx": 5997,
      "Ġchiefly": 5998,
      "Ġforgotten": 5999,
      "Ġapproach": 6000,
      "ĠGregory": 6001,
      "Ġvillain": 6002,
      "Ġsymp": 6003,
      "ĠPOPE": 6004,
      "Review": 6005,
      "ĠPriest": 6006,
      "Ġpractice": 6007,
      "Ġinclined": 6008,
      "Ġproduce": 6009,
      "Ġwhispering": 6010,
      "Ġpopular": 6011,
      "ĠBetween": 6012,
      "Ġborrowed": 6013,
      "Ġmillions": 6014,
      "ĠCALYPH": 6015,
      "ĠEXTR": 6016,
      "Ġpilgrim": 6017,
      "Ġrevenge": 6018,
      "Ġprosper": 6019,
      "ĠGentle": 6020,
      "ĠFebruary": 6021,
      "ĠAristotle": 6022,
      "ĠProfess": 6023,
      "ĠChapman": 6024,
      "ĠShelley": 6025,
      "ĠCALYPHAS": 6026,
      ",'": 6027,
      "BIN": 6028,
      "De": 6029,
      "GU": 6030,
      "IX": 6031,
      "IZ": 6032,
      "ILL": 6033,
      "MED": 6034,
      "Then": 6035,
      "_[": 6036,
      "aft": 6037,
      "after": 6038,
      "cast": 6039,
      "live": 6040,
      "lph": 6041,
      "rated": 6042,
      "Ã¦": 6043,
      "Ġtall": 6044,
      "Ġaz": 6045,
      "erness": 6046,
      "Ġbash": 6047,
      "Ġburi": 6048,
      "Ġfeared": 6049,
      "Ġfought": 6050,
      "Ġmood": 6051,
      "oration": 6052,
      "orough": 6053,
      "enance": 6054,
      "enched": 6055,
      "enny": 6056,
      "Ġlinger": 6057,
      "Ġcoll": 6058,
      "Ġcustom": 6059,
      "ingly": 6060,
      "ingham": 6061,
      "Ġduty": 6062,
      "ĠApp": 6063,
      "Ġinj": 6064,
      "ato": 6065,
      "Ġnod": 6066,
      "Ġhues": 6067,
      "Ġeb": 6068,
      "iced": 6069,
      "ĠWit": 6070,
      "ĠWig": 6071,
      "ĠWisdom": 6072,
      "lder": 6073,
      "asse": 6074,
      "urd": 6075,
      "ĠBan": 6076,
      "rag": 6077,
      "ĠHall": 6078,
      "ĠHAFED": 6079,
      "ĠMel": 6080,
      "ĠMost": 6081,
      "ĠFr": 6082,
      "rock": 6083,
      "Ġrend": 6084,
      "Ġforbid": 6085,
      "Ġasse": 6086,
      "Ġaside": 6087,
      "Ġasleep": 6088,
      "Ġassoci": 6089,
      "ĠCrit": 6090,
      "ĠCELE": 6091,
      "Ġweather": 6092,
      "Ġdeity": 6093,
      "Ġnotice": 6094,
      "ĠPr": 6095,
      "ĠPres": 6096,
      "Ġshr": 6097,
      "Ġanal": 6098,
      "ĠRosa": 6099,
      "ĠWhite": 6100,
      "ĠWhible": 6101,
      "ĠGh": 6102,
      "igne": 6103,
      "oster": 6104,
      "Ġnoise": 6105,
      "Ġexha": 6106,
      "Ġexec": 6107,
      "Ġunless": 6108,
      "ĠJe": 6109,
      "ĠVict": 6110,
      "Ġdoing": 6111,
      "asses": 6112,
      "Ġtru": 6113,
      "Ġquoted": 6114,
      "Ġprogress": 6115,
      "ulliv": 6116,
      "fulness": 6117,
      "Ġrav": 6118,
      "Ġsuns": 6119,
      "Ġnightly": 6120,
      "ĠStar": 6121,
      "Ġgracious": 6122,
      "erer": 6123,
      "Ġtwined": 6124,
      "them": 6125,
      "Ġpreced": 6126,
      "Ġemper": 6127,
      "Ġeduc": 6128,
      "ĠSpain": 6129,
      "Ġafraid": 6130,
      "Ġcontains": 6131,
      "ĠArch": 6132,
      "Ġexped": 6133,
      "Ġresult": 6134,
      "Ġ1896": 6135,
      "Ġbrains": 6136,
      "Ġafterwards": 6137,
      "Ġsetting": 6138,
      "Ġkeeping": 6139,
      "Ġattack": 6140,
      "Ġillust": 6141,
      "Ġpersu": 6142,
      "ĠĠĠĠĠĠĠĠĠĠĠĠĠĠĠĠĠĠĠĠĠĠĠĠĠĠĠĠ": 6143,
      "leton": 6144,
      "OMAS": 6145,
      "Ġstarry": 6146,
      "Ġgentlemen": 6147,
      "twould": 6148,
      "Ġmerits": 6149,
      "Ġdares": 6150,
      "Ġdared": 6151,
      "Ġmemor": 6152,
      "Ġ80": 6153,
      "ĠPlays": 6154,
      "ELICA": 6155,
      "ĠTHAT": 6156,
      "ĠTHOMAS": 6157,
      "ACT": 6158,
      "Ġmisery": 6159,
      "ĠSeemed": 6160,
      "Ġconquering": 6161,
      "Ġgrowing": 6162,
      "ournal": 6163,
      "worthy": 6164,
      "Ġthousands": 6165,
      "Ġemotional": 6166,
      "Ġlistened": 6167,
      "Ġvictim": 6168,
      "Ġmadness": 6169,
      "gainst": 6170,
      "Ġobjects": 6171,
      "ĠMuses": 6172,
      "Ġtrying": 6173,
      "Ġleafy": 6174,
      "Ġdeceive": 6175,
      "Ġstruct": 6176,
      "Ġswelling": 6177,
      "ĠColonel": 6178,
      "Ġgleams": 6179,
      "Ġrising": 6180,
      "Ġstrayed": 6181,
      "ĠAgainst": 6182,
      "Ġdeny": 6183,
      "Isham": 6184,
      "guish": 6185,
      "Ġranks": 6186,
      "ĠWater": 6187,
      "Ġfetch": 6188,
      "Ġconjure": 6189,
      "Ġluxury": 6190,
      "Ġmelting": 6191,
      "Ġwithering": 6192,
      "Ġfoam": 6193,
      "ĠBullen": 6194,
      "Ġmartial": 6195,
      "ĠHighness": 6196,
      "Ġprepare": 6197,
      "Ġtimid": 6198,
      "Ġconsiderable": 6199,
      "Ġcontributions": 6200,
      "Ġhigher": 6201,
      "Ġminstrel": 6202,
      "Ġphysic": 6203,
      "ĠAugust": 6204,
      "Ġjewels": 6205,
      "ĠWRITTEN": 6206,
      "ĠCashmere": 6207,
      "ĠLADY": 6208,
      "ĠSociety": 6209,
      "ĠWhibley": 6210,
      "21": 6211,
      "?\"--": 6212,
      "AZ": 6213,
      "En": 6214,
      "Ideas": 6215,
      "Mar": 6216,
      "Such": 6217,
      "bred": 6218,
      "ded": 6219,
      "dles": 6220,
      "gen": 6221,
      "iac": 6222,
      "range": 6223,
      "wing": 6224,
      "Ġ31": 6225,
      "Ġsands": 6226,
      "Ġscept": 6227,
      "Ġsitting": 6228,
      "Ġwo": 6229,
      "Ġwig": 6230,
      "Ġbit": 6231,
      "Ġbas": 6232,
      "Ġbent": 6233,
      "Ġbol": 6234,
      "Ġbeds": 6235,
      "Ġbones": 6236,
      "Ġfurn": 6237,
      "isp": 6238,
      "Ġlinks": 6239,
      "Ġcam": 6240,
      "Ġcand": 6241,
      "Ġcollect": 6242,
      "Ġpack": 6243,
      "Ġpick": 6244,
      "Ġpardon": 6245,
      "ĠAge": 6246,
      "Ġinqu": 6247,
      "Ġnar": 6248,
      "Ġnice": 6249,
      "omach": 6250,
      "ĠId": 6251,
      "Ġgown": 6252,
      "Ġgreet": 6253,
      "Ġgathered": 6254,
      "icate": 6255,
      "icism": 6256,
      "othe": 6257,
      "otes": 6258,
      "ĠSP": 6259,
      "ĠSch": 6260,
      "ĠSest": 6261,
      "ĠSum": 6262,
      "ĠSab": 6263,
      "ĠSapp": 6264,
      "ĠSunday": 6265,
      "ĠBL": 6266,
      "ĠBre": 6267,
      "ĠBid": 6268,
      "Ġ_\"": 6269,
      "ĠOp": 6270,
      "ĠOver": 6271,
      "ĠOLY": 6272,
      "rait": 6273,
      "Ġstained": 6274,
      "Ġstones": 6275,
      "enter": 6276,
      "ĠMill": 6277,
      "ĠMISS": 6278,
      "ĠFal": 6279,
      "ĠFates": 6280,
      "Ġrent": 6281,
      "Ġreality": 6282,
      "Ġyellow": 6283,
      "Ġyester": 6284,
      "ĠLay": 6285,
      "ĠCuch": 6286,
      "ĠCapt": 6287,
      "unch": 6288,
      "Ġdemon": 6289,
      "Ġallusion": 6290,
      "ĠPort": 6291,
      "Ġmeets": 6292,
      "ilst": 6293,
      "ĠNept": 6294,
      "ĠDem": 6295,
      "ĠDiss": 6296,
      "ĠEP": 6297,
      "Ġshook": 6298,
      "Ġrum": 6299,
      "Ġsup": 6300,
      "Ġspheres": 6301,
      "arter": 6302,
      "ifies": 6303,
      "ĠRuss": 6304,
      "elf": 6305,
      "eary": 6306,
      "Ġconn": 6307,
      "Ġconv": 6308,
      "Ġsails": 6309,
      "Ġnobody": 6310,
      "Ġloveliness": 6311,
      "Ġexerc": 6312,
      "ĠJER": 6313,
      "Ġtricks": 6314,
      "Ġlogic": 6315,
      "Ġfee": 6316,
      "Ġcloth": 6317,
      "Ġearlier": 6318,
      "Ġscale": 6319,
      "uding": 6320,
      "Ġgraces": 6321,
      "Ġadvent": 6322,
      "ruction": 6323,
      "Ġempt": 6324,
      "Ġintense": 6325,
      "Ġintroduction": 6326,
      "ISM": 6327,
      "ĠAthens": 6328,
      "Ġdrag": 6329,
      "Ġrepro": 6330,
      "ograph": 6331,
      "Ġends": 6332,
      ":--\"": 6333,
      "Ġgrat": 6334,
      "Ġ1894": 6335,
      "Ġjustice": 6336,
      "Ġcountless": 6337,
      "Ġbrook": 6338,
      "Ġfollows": 6339,
      "azine": 6340,
      "Ġcompan": 6341,
      "Ġentreat": 6342,
      "Ġinstinct": 6343,
      "Ġblissful": 6344,
      "Ġvel": 6345,
      "Ġboards": 6346,
      "While": 6347,
      "Ġcrime": 6348,
      "Ġdiscuss": 6349,
      "Ġhorizon": 6350,
      "Ġcares": 6351,
      "ĠMaj": 6352,
      "Ġdaily": 6353,
      "Ġstandard": 6354,
      "Ġgenerous": 6355,
      "Ġgeneration": 6356,
      "Ġerrors": 6357,
      "ĠZELICA": 6358,
      "ĠParliam": 6359,
      "Ġtext": 6360,
      "Ġstately": 6361,
      "Ġprofane": 6362,
      "ĠSpirits": 6363,
      "Ġodor": 6364,
      "Ġcolours": 6365,
      "Ġoccur": 6366,
      "Ġoccup": 6367,
      "Ġwounded": 6368,
      "ĠQuick": 6369,
      "Ġprice": 6370,
      "Ġaffairs": 6371,
      "Ġfloat": 6372,
      "Ġfloating": 6373,
      "Ġscarcely": 6374,
      "Ġfloods": 6375,
      "Ġwreaths": 6376,
      "Ġ159": 6377,
      "Ġslowly": 6378,
      "Ġstirred": 6379,
      "Ġartistic": 6380,
      "Ġescape": 6381,
      "Ġcontempl": 6382,
      "Ġwarriors": 6383,
      "Ġordinary": 6384,
      "UND": 6385,
      "Ġfoolish": 6386,
      "Ġfuneral": 6387,
      "Ġbondage": 6388,
      "Ġquarto": 6389,
      "Ġallegory": 6390,
      "Ġhaunts": 6391,
      "Ġexactly": 6392,
      "Ġbuds": 6393,
      "Ġgroup": 6394,
      "Ġparents": 6395,
      "Ġbalance": 6396,
      "ĠAfric": 6397,
      "Ġslavery": 6398,
      "Ġeyelids": 6399,
      "Ġinferior": 6400,
      "ĠEXTRACT": 6401,
      "ĠProfessor": 6402,
      "BINUS": 6403,
      "ĠCELEBINUS": 6404,
      "ullivan": 6405,
      "ĠOLYMP": 6406,
      "ĠNeptune": 6407,
      "45": 6408,
      "COUR": 6409,
      "IUS": 6410,
      "Our": 6411,
      "Sw": 6412,
      "She": 6413,
      "WE": 6414,
      "aunt": 6415,
      "cus": 6416,
      "could": 6417,
      "col": 6418,
      "dering": 6419,
      "ext": 6420,
      "gly": 6421,
      "iel": 6422,
      "lasting": 6423,
      "off": 6424,
      "rations": 6425,
      "ĠUS": 6426,
      "Ġign": 6427,
      "Ġtorn": 6428,
      "Ġtied": 6429,
      "Ġsouth": 6430,
      "Ġsaints": 6431,
      "Ġwrought": 6432,
      "hain": 6433,
      "Ġbare": 6434,
      "Ġbab": 6435,
      "itution": 6436,
      "enate": 6437,
      "Ġlend": 6438,
      "Ġlaughter": 6439,
      "Ġcure": 6440,
      "Ġpit": 6441,
      "Ġpred": 6442,
      "ĠTy": 6443,
      "ĠAlex": 6444,
      "atient": 6445,
      "Ġnurst": 6446,
      "Ġhint": 6447,
      "still": 6448,
      "ica": 6449,
      "ĠSqu": 6450,
      "uted": 6451,
      "ashing": 6452,
      "rig": 6453,
      "Ġwhit": 6454,
      "Ġwhither": 6455,
      "ĠBa": 6456,
      "Ġstro": 6457,
      "cho": 6458,
      "ĠHo": 6459,
      "ĠHalf": 6460,
      "ĠFall": 6461,
      "ĠFolly": 6462,
      "adrill": 6463,
      "ĠLest": 6464,
      "ĠLittle": 6465,
      "ĠLUC": 6466,
      "ĠPeter": 6467,
      "ctions": 6468,
      "ĠDark": 6469,
      "ĠDav": 6470,
      "Ġsex": 6471,
      "Ġsell": 6472,
      "ovel": 6473,
      "ulain": 6474,
      "ulate": 6475,
      "ĠGOV": 6476,
      "quer": 6477,
      "ourne": 6478,
      "Ġblade": 6479,
      "elle": 6480,
      "Ġflown": 6481,
      "Ġplague": 6482,
      "igan": 6483,
      "igram": 6484,
      "Ġmanage": 6485,
      "Ġloveliest": 6486,
      "Ġunm": 6487,
      "Ġuns": 6488,
      "ĠJun": 6489,
      "Ġdoctor": 6490,
      "Ġwouldst": 6491,
      "ager": 6492,
      "Ġproof": 6493,
      "cial": 6494,
      "orning": 6495,
      "reek": 6496,
      "Ġyourself": 6497,
      "Ġscrib": 6498,
      "Ġwherever": 6499,
      "Ġenv": 6500,
      "itty": 6501,
      "Ġpercept": 6502,
      "Ġshoulders": 6503,
      "Ġgrapes": 6504,
      "ĠKe": 6505,
      "pled": 6506,
      "ĠWherein": 6507,
      "Ġprevail": 6508,
      "ANE": 6509,
      "Ġpassions": 6510,
      "Ġdreaming": 6511,
      "Ġintens": 6512,
      "Ġintended": 6513,
      "ĠWhatever": 6514,
      "eech": 6515,
      "ĠSham": 6516,
      "manent": 6517,
      "Ġwatery": 6518,
      "Ġpreserve": 6519,
      "Ġendure": 6520,
      "Ġcursed": 6521,
      "Ġkindred": 6522,
      "ization": 6523,
      "izard": 6524,
      "Ġsilk": 6525,
      "Ġsilken": 6526,
      "Ġpurer": 6527,
      "Ġpurely": 6528,
      "Ġcourts": 6529,
      "Ġruins": 6530,
      "dening": 6531,
      "Ġattract": 6532,
      "Ġillum": 6533,
      "Ġfolly": 6534,
      "Ġcompar": 6535,
      "Ġcoin": 6536,
      "Ġrecord": 6537,
      "Ġentertain": 6538,
      "Ġsnug": 6539,
      "Ġpurple": 6540,
      "Ġbringing": 6541,
      "Ġreflect": 6542,
      "Ġopening": 6543,
      "ĠScots": 6544,
      "ĠLeave": 6545,
      "Ġdiscovered": 6546,
      "Ġactual": 6547,
      "Ġsincere": 6548,
      "ĠMaid": 6549,
      "Ġforgiven": 6550,
      "Ġdropt": 6551,
      "ITH": 6552,
      "ĠWellington": 6553,
      "Ġfountains": 6554,
      "ĠJohnson": 6555,
      "ĠPeer": 6556,
      "Ġadvant": 6557,
      "Ġstormy": 6558,
      "Ġceased": 6559,
      "Ġvenom": 6560,
      "Ġimportance": 6561,
      "chery": 6562,
      "Ġpapers": 6563,
      "Ġcombat": 6564,
      "Ġrisen": 6565,
      "Ġabsence": 6566,
      "ĠDramatic": 6567,
      "Ġpalace": 6568,
      "ĠMagazine": 6569,
      "Ġmingle": 6570,
      "ĠGrecian": 6571,
      "Ġinspired": 6572,
      "ĠCorin": 6573,
      "ĠEastern": 6574,
      "ĠMonthly": 6575,
      "Ġemployed": 6576,
      "Ġivory": 6577,
      "ĠEarl": 6578,
      "Ġrolled": 6579,
      "Ġfirmament": 6580,
      "Ġgrieve": 6581,
      "Ġtrumpet": 6582,
      "Ġterrible": 6583,
      "Ġneighbor": 6584,
      "IFER": 6585,
      "Ġtuneful": 6586,
      "Ġprincely": 6587,
      "Ġbewild": 6588,
      "ĠHenry": 6589,
      "Ġargument": 6590,
      "ANNA": 6591,
      "Ġboughs": 6592,
      "ĠTurkish": 6593,
      "Ġcredit": 6594,
      "ersonal": 6595,
      "ĠThrone": 6596,
      "Ġdeliberate": 6597,
      "Ġappreci": 6598,
      "Ġprecise": 6599,
      "Ġtriumphant": 6600,
      "ĠRupert": 6601,
      "Ġornament": 6602,
      "Ġmortals": 6603,
      "ĠElysium": 6604,
      "Ġscourge": 6605,
      "Ġsovereign": 6606,
      "Ġcorrect": 6607,
      "Ġinhabitants": 6608,
      "Ġstructure": 6609,
      "Ġempty": 6610,
      "ĠOLYMPIA": 6611,
      "ĠLUCIFER": 6612,
      "ĠGOVERN": 6613,
      "68": 6614,
      "AP": 6615,
      "Ah": 6616,
      "CAS": 6617,
      "HN": 6618,
      "IB": 6619,
      "KANNA": 6620,
      "Nor": 6621,
      "OST": 6622,
      "Some": 6623,
      "Sullivan": 6624,
      "VEN": 6625,
      "bird": 6626,
      "down": 6627,
      "gged": 6628,
      "hor": 6629,
      "hurst": 6630,
      "ially": 6631,
      "mill": 6632,
      "might": 6633,
      "nal": 6634,
      "rang": 6635,
      "too": 6636,
      "take": 6637,
      "uel": 6638,
      "Ã¢": 6639,
      "Ġurch": 6640,
      "Ġting": 6641,
      "inent": 6642,
      "Ġwoes": 6643,
      "Ġbay": 6644,
      "Ġbids": 6645,
      "Ġfif": 6646,
      "Ġmas": 6647,
      "iting": 6648,
      "lled": 6649,
      "Ġlance": 6650,
      "Ġlamps": 6651,
      "Ġcant": 6652,
      "Ġpi": 6653,
      "Ġpang": 6654,
      "Ġpip": 6655,
      "Ġdon": 6656,
      "Ġdove": 6657,
      "Ġdurst": 6658,
      "ĠAg": 6659,
      "ĠAir": 6660,
      "Ġinform": 6661,
      "omen": 6662,
      "Ġhunt": 6663,
      "Ġhoney": 6664,
      "--(": 6665,
      "Ġecl": 6666,
      "ichael": 6667,
      "ĠWE": 6668,
      "ĠShed": 6669,
      "ĠSaw": 6670,
      "aling": 6671,
      "urity": 6672,
      "ĠBo": 6673,
      "imer": 6674,
      "rael": 6675,
      "Ġstolen": 6676,
      "ĠHapp": 6677,
      "ĠHistory": 6678,
      "ĠMR": 6679,
      "ĠMother": 6680,
      "ĠMany": 6681,
      "Ġlib": 6682,
      "ĠFond": 6683,
      "Ġaspect": 6684,
      "ĠCle": 6685,
      "ĠCreat": 6686,
      "ĠCity": 6687,
      "ĠCru": 6688,
      "Ġwears": 6689,
      "ĠĠĠĠĠĠĠĠĠĠĠĠĠĠ": 6690,
      "uns": 6691,
      "ĠPet": 6692,
      "ĠPut": 6693,
      "ĠPubl": 6694,
      "Ġmeat": 6695,
      "eable": 6696,
      "Ġvap": 6697,
      "Ġviii": 6698,
      "Ġserene": 6699,
      "ĠEmp": 6700,
      "Ġshroud": 6701,
      "Ġspect": 6702,
      "Ġugly": 6703,
      "ĠGreen": 6704,
      "umper": 6705,
      "uments": 6706,
      "elve": 6707,
      "elcome": 6708,
      "Ġblown": 6709,
      "olk": 6710,
      "Ġconvers": 6711,
      "Ġconsequ": 6712,
      "Ġplume": 6713,
      "Ġsworn": 6714,
      "Ġexceeding": 6715,
      "Ġknock": 6716,
      "blem": 6717,
      "Ġunw": 6718,
      "ĠJo": 6719,
      "orthern": 6720,
      "ĠVirt": 6721,
      "ĠVision": 6722,
      "oys": 6723,
      "Ġdoors": 6724,
      "berg": 6725,
      "Ġlock": 6726,
      "Ġprod": 6727,
      "Ġproved": 6728,
      "Ġfever": 6729,
      "Ġabund": 6730,
      "aches": 6731,
      ".--\"": 6732,
      "rined": 6733,
      "Ġnighting": 6734,
      "ĠStates": 6735,
      "Ġdidst": 6736,
      "ĠKoran": 6737,
      "ONE": 6738,
      "Ġ29": 6739,
      "ension": 6740,
      "ĠIsland": 6741,
      "iable": 6742,
      "ipse": 6743,
      "ARD": 6744,
      "ARY": 6745,
      "Ġdearly": 6746,
      "Ġwritings": 6747,
      "Ġslender": 6748,
      "ogn": 6749,
      "Ġresist": 6750,
      "Ġtriple": 6751,
      "Ġgrate": 6752,
      "Ġdeeply": 6753,
      "Ġsingular": 6754,
      "Ġcreate": 6755,
      "Ġmarriage": 6756,
      "Ġpainful": 6757,
      "Ġprayed": 6758,
      "Ġwitching": 6759,
      "Ġmonths": 6760,
      "eyed": 6761,
      "Ġmodest": 6762,
      "ĠScyth": 6763,
      "Ġacts": 6764,
      "Ġcaves": 6765,
      "ĠAmid": 6766,
      "Ġerr": 6767,
      "Ġerring": 6768,
      "Ġ100": 6769,
      "Ġviewed": 6770,
      "ĠZea": 6771,
      "Ġreturning": 6772,
      "Ġforgive": 6773,
      "Ġpassionate": 6774,
      "worth": 6775,
      "Ġdepth": 6776,
      "Ġsigns": 6777,
      "Ġadmir": 6778,
      "Ġadmire": 6779,
      "Ġmurder": 6780,
      "Ġhateful": 6781,
      "Ġadvance": 6782,
      "Ġsuperior": 6783,
      "Ġhidden": 6784,
      "ĠGrand": 6785,
      "cellor": 6786,
      "ĠTurks": 6787,
      "ĠMean": 6788,
      "Ġequally": 6789,
      "Ġgladly": 6790,
      "ĠDrama": 6791,
      "Ġoppos": 6792,
      "Ġslumbering": 6793,
      "Ġromance": 6794,
      "Ġmouths": 6795,
      "Ġpillow": 6796,
      "Ġghosts": 6797,
      "Ġpainting": 6798,
      "Ġdegrees": 6799,
      "Ġmixture": 6800,
      "Ġcaptive": 6801,
      "Ġhaunted": 6802,
      "Ġantiqu": 6803,
      "Ġobvious": 6804,
      "Ġsubstance": 6805,
      "ĠEsq": 6806,
      "Ġoblig": 6807,
      "uminous": 6808,
      "Ġsource": 6809,
      "Ġlaurel": 6810,
      "Ġaudience": 6811,
      "Ġnectar": 6812,
      "ĠGaelic": 6813,
      "Ġmagnificent": 6814,
      "Ġswallow": 6815,
      "Ġbarbarous": 6816,
      "ĠMilton": 6817,
      "ĠCASTL": 6818,
      "Ġazure": 6819,
      "Ġyesterday": 6820,
      "Ġconnect": 6821,
      "ĠParliament": 6822,
      "COURSER": 6823,
      "64": 6824,
      "65": 6825,
      "Dyce": 6826,
      "Gl": 6827,
      "Good": 6828,
      "LAND": 6829,
      "Richar": 6830,
      "Sh": 6831,
      "SON": 6832,
      "Shall": 6833,
      "Till": 6834,
      "ULL": 6835,
      "acious": 6836,
      "bble": 6837,
      "burn": 6838,
      "cup": 6839,
      "eer": 6840,
      "felt": 6841,
      "nel": 6842,
      "pie": 6843,
      "pret": 6844,
      "ule": 6845,
      "vi": 6846,
      "vis": 6847,
      "your": 6848,
      "yram": 6849,
      "Ġtest": 6850,
      "Ġtones": 6851,
      "Ġobed": 6852,
      "Ġwid": 6853,
      "erie": 6854,
      "Ġbon": 6855,
      "Ġbord": 6856,
      "Ġfer": 6857,
      "Ġmuse": 6858,
      "once": 6859,
      "Ġcu": 6860,
      "Ġcock": 6861,
      "Ġphant": 6862,
      "ĠTalk": 6863,
      "Ġthorn": 6864,
      "Ġheed": 6865,
      "ĠWritten": 6866,
      "ĠSE": 6867,
      "ĠSing": 6868,
      "ĠSult": 6869,
      "asons": 6870,
      "riv": 6871,
      "alas": 6872,
      "ĠBro": 6873,
      "ĠBreat": 6874,
      "Ġstomach": 6875,
      "ĠMal": 6876,
      "ĠMam": 6877,
      "ĠMove": 6878,
      "ĠMake": 6879,
      "ĠFred": 6880,
      "Ġrevel": 6881,
      "ĠLynd": 6882,
      "ĠLadies": 6883,
      "ĠCe": 6884,
      "ĠCLOW": 6885,
      "ĠĠĠĠĠĠĠĠĠĠĠĠ": 6886,
      "illy": 6887,
      "unes": 6888,
      "unge": 6889,
      "Ġdebt": 6890,
      "ĠPH": 6891,
      "ĠPost": 6892,
      "ĠPrinted": 6893,
      "Ġ[_": 6894,
      "thus": 6895,
      "each": 6896,
      "Ġsoar": 6897,
      "ĠDou": 6898,
      "ĠEpic": 6899,
      "Ġshud": 6900,
      "Ġrout": 6901,
      "Ġanguish": 6902,
      "Ġsuf": 6903,
      "Ġsust": 6904,
      "gend": 6905,
      "ĠRus": 6906,
      "ĠRect": 6907,
      "ĠRober": 6908,
      "ĠRhym": 6909,
      "Ġordered": 6910,
      "ĠGRE": 6911,
      "umer": 6912,
      "epend": 6913,
      "osity": 6914,
      "istle": 6915,
      "odox": 6916,
      "Ġarch": 6917,
      "Ġplot": 6918,
      "Ġalarm": 6919,
      "Ġmaze": 6920,
      "Ġmanners": 6921,
      "Ġexcess": 6922,
      "rying": 6923,
      "Ġjoke": 6924,
      "Ġunhe": 6925,
      "Ġunre": 6926,
      "Ġunchan": 6927,
      "ĠJack": 6928,
      "ĠJames": 6929,
      "Ġlightly": 6930,
      "Ġglist": 6931,
      "inkle": 6932,
      "ĠVOL": 6933,
      "Ġusually": 6934,
      "Ġquench": 6935,
      "Ġloc": 6936,
      "Ġprost": 6937,
      "ciples": 6938,
      "Ġclime": 6939,
      "Ġscor": 6940,
      "Ġscattered": 6941,
      "Ġsmell": 6942,
      "ianna": 6943,
      "never": 6944,
      "Ġencl": 6945,
      "Ġperj": 6946,
      "Ġpersec": 6947,
      "Ġchilled": 6948,
      "Ġchoir": 6949,
      "Ġchorus": 6950,
      "Ġeverywhere": 6951,
      "dson": 6952,
      "Ġlasting": 6953,
      "Ġ21": 6954,
      "Ġslain": 6955,
      "Ġanyone": 6956,
      "ĠSprite": 6957,
      "ĠReverend": 6958,
      "Ġimpulse": 6959,
      "Ġbetrayed": 6960,
      "Ġcontain": 6961,
      "Ġfarce": 6962,
      "Ġwatching": 6963,
      "Ġfinding": 6964,
      "forms": 6965,
      "Ġriv": 6966,
      "Ġpeasant": 6967,
      "ĠDeep": 6968,
      "ĠAlc": 6969,
      "ĠAlone": 6970,
      "Ġtreacher": 6971,
      "ucid": 6972,
      "Ġbranch": 6973,
      "Ġbranches": 6974,
      "Ġsooner": 6975,
      "Ġbrood": 6976,
      "Ġwilderness": 6977,
      "ĠĠĠĠĠĠĠĠĠĠĠĠĠĠĠĠĠĠĠĠĠĠĠĠĠĠĠĠĠĠ": 6978,
      "Ġretreat": 6979,
      "Ġwanting": 6980,
      "Ġverd": 6981,
      "Ġveins": 6982,
      "Ġsecure": 6983,
      "Ġsecrets": 6984,
      "Ġboon": 6985,
      "Ġpresented": 6986,
      "Ġflee": 6987,
      "Ġmonth": 6988,
      "Ġopinions": 6989,
      "Ġpatron": 6990,
      "Ġpatient": 6991,
      "Ġpatience": 6992,
      "Ġcastle": 6993,
      "Ġsurface": 6994,
      "Ġassist": 6995,
      "Ġcrack": 6996,
      "Ġuseful": 6997,
      "ACE": 6998,
      "Ġvirtuous": 6999,
      "Ġconquered": 7000,
      "Ġsparkles": 7001,
      "Ġhelm": 7002,
      "Ġclearly": 7003,
      "UMCAS": 7004,
      "Ġforehead": 7005,
      "ĠAdam": 7006,
      "Ġtorrent": 7007,
      "Ġwrongs": 7008,
      "Ġsuffering": 7009,
      "Ġbreezes": 7010,
      "Ġestabl": 7011,
      "Ġhoped": 7012,
      "Ġdescribe": 7013,
      "Ġstarted": 7014,
      "Ġhistorical": 7015,
      "Ġpictures": 7016,
      "Ġabsent": 7017,
      "Ġlingered": 7018,
      "Ġradiance": 7019,
      "Ġtroubled": 7020,
      "Ġwestern": 7021,
      "ĠMOKANNA": 7022,
      "ĠWaters": 7023,
      "Ġgazed": 7024,
      "Ġfetters": 7025,
      "Ġcrook": 7026,
      "Ġburden": 7027,
      "ĠAmerica": 7028,
      "ĠCARTER": 7029,
      "Ġmartyr": 7030,
      "ĠSilent": 7031,
      "Ġmiracles": 7032,
      "Ġfoli": 7033,
      "Ġexample": 7034,
      "United": 7035,
      "Ġgathering": 7036,
      "ĠTreasury": 7037,
      "ĠRemember": 7038,
      "ĠCompany": 7039,
      "Ġmixed": 7040,
      "Ġseparate": 7041,
      "ĠJudy": 7042,
      "Ġenemies": 7043,
      "Ġcontemporary": 7044,
      "William": 7045,
      "mission": 7046,
      "Ġobscure": 7047,
      "ĠCollege": 7048,
      "ĠProtestant": 7049,
      "Ġrejoice": 7050,
      "ĠSometimes": 7051,
      "ALEM": 7052,
      "ĠHORSE": 7053,
      "ĠSappho": 7054,
      "ĠCuchulain": 7055,
      "ĠCaptain": 7056,
      "ĠUSUMCAS": 7057,
      "ĠVirtue": 7058,
      "ĠLyndhurst": 7059,
      "ĠCLOWN": 7060,
      "ĠUSUMCASANE": 7061,
      ");": 7062,
      ".:": 7063,
      "Com": 7064,
      "GHT": 7065,
      "IES": 7066,
      "ILE": 7067,
      "Love": 7068,
      "Leary": 7069,
      "].": 7070,
      "ai": 7071,
      "aps": 7072,
      "action": 7073,
      "bear": 7074,
      "eur": 7075,
      "foot": 7076,
      "field": 7077,
      "iast": 7078,
      "lings": 7079,
      "mir": 7080,
      "mend": 7081,
      "ns": 7082,
      "nings": 7083,
      "oks": 7084,
      "pon": 7085,
      "ral": 7086,
      "sing": 7087,
      "time": 7088,
      "trees": 7089,
      "uv": 7090,
      "vant": 7091,
      "Ġtent": 7092,
      "Ġtame": 7093,
      "Ġtales": 7094,
      "hell": 7095,
      "Ġsire": 7096,
      "Ġsinks": 7097,
      "Ġtheory": 7098,
      "Ġwizard": 7099,
      "Ġbod": 7100,
      "Ġfart": 7101,
      "Ġfits": 7102,
      "Ġfishes": 7103,
      "Ġmim": 7104,
      "itudes": 7105,
      "orace": 7106,
      "eny": 7107,
      "Ġcull": 7108,
      "Ġpin": 7109,
      "Ġpos": 7110,
      "Ġpag": 7111,
      "Ġpron": 7112,
      "ĠTib": 7113,
      "ĠTRE": 7114,
      "ĠTIM": 7115,
      "Ġdus": 7116,
      "Ġdome": 7117,
      "ĠAD": 7118,
      "ĠAng": 7119,
      "ĠAby": 7120,
      "atra": 7121,
      "Ġnine": 7122,
      "Ġthreshold": 7123,
      "omin": 7124,
      "stead": 7125,
      "Ġheels": 7126,
      "Ġgained": 7127,
      "Ġepic": 7128,
      "icity": 7129,
      "see": 7130,
      "ĠWOR": 7131,
      "ĠSa": 7132,
      "ĠSer": 7133,
      "ĠSet": 7134,
      "ĠSim": 7135,
      "ĠSol": 7136,
      "ĠSto": 7137,
      "ĠSHE": 7138,
      "ĠSleep": 7139,
      "irds": 7140,
      "Ġbere": 7141,
      "rived": 7142,
      "urg": 7143,
      "race": 7144,
      "ĠHear": 7145,
      "ĠHAR": 7146,
      "ĠHorace": 7147,
      "ĠFRI": 7148,
      "ĠFisher": 7149,
      "using": 7150,
      "Ġrepl": 7151,
      "amas": 7152,
      "ĠLy": 7153,
      "ĠLear": 7154,
      "ĠCher": 7155,
      "ille": 7156,
      "Ġdeb": 7157,
      "Ġdews": 7158,
      "Ġdefend": 7159,
      "Ġvital": 7160,
      "ĠNick": 7161,
      "ĠEternal": 7162,
      "Ġships": 7163,
      "Ġrud": 7164,
      "Ġrush": 7165,
      "asters": 7166,
      "Ġ13": 7167,
      "ĠRichar": 7168,
      "ĠWhigs": 7169,
      "ĠGall": 7170,
      "ounding": 7171,
      "ourse": 7172,
      "oused": 7173,
      "ieu": 7174,
      "Ġflocks": 7175,
      "ods": 7176,
      "Ġpluck": 7177,
      "Ġsweep": 7178,
      "Ġalter": 7179,
      "Ġlovelier": 7180,
      "Ġjest": 7181,
      "Ġune": 7182,
      "Ġunh": 7183,
      "Ġunp": 7184,
      "Ġglancing": 7185,
      "Ġglances": 7186,
      "Ġchamber": 7187,
      "Ġquoth": 7188,
      "Ġlov": 7189,
      "ullus": 7190,
      "endix": 7191,
      "Ġclo": 7192,
      "Ġscra": 7193,
      "Ġsmart": 7194,
      "Ġrack": 7195,
      "ĠStand": 7196,
      "Ġleaving": 7197,
      "INT": 7198,
      "Ġpoetical": 7199,
      "USALEM": 7200,
      "Ġgraves": 7201,
      "ĠKeep": 7202,
      "ancers": 7203,
      "Ġ1826": 7204,
      "ĠItaly": 7205,
      "ĠIsrael": 7206,
      "iah": 7207,
      "Ġthrob": 7208,
      "Ġdreamt": 7209,
      "Ġintro": 7210,
      "ĠRevol": 7211,
      "Ġbetray": 7212,
      "Ġreaders": 7213,
      "Ġresting": 7214,
      "Ġrestra": 7215,
      "Ġhappen": 7216,
      "Ġrepair": 7217,
      "Ġstrang": 7218,
      "Ġconscience": 7219,
      "Ġpleasing": 7220,
      "Ġtrib": 7221,
      "Ġtreasures": 7222,
      "Ġdeeper": 7223,
      "Ġguest": 7224,
      "Ġgenial": 7225,
      "Ġ1905": 7226,
      "Ġattribut": 7227,
      "Ġcountenance": 7228,
      "ernal": 7229,
      "Ġaccident": 7230,
      "why": 7231,
      "Ġwinding": 7232,
      "Ġcompass": 7233,
      "Ġrecogn": 7234,
      "Ġdivided": 7235,
      "Ġdrank": 7236,
      "ĠPoem": 7237,
      "Ġsentence": 7238,
      "Ġcrowns": 7239,
      "ĠScott": 7240,
      "Ġstanding": 7241,
      "Ġgenerally": 7242,
      "Ġfills": 7243,
      "Ġsorrows": 7244,
      "ĠPlato": 7245,
      "ĠChristop": 7246,
      "Ġreturns": 7247,
      "Ġessence": 7248,
      "Ġfathers": 7249,
      "Ġsignal": 7250,
      "Ġcolumn": 7251,
      "irdre": 7252,
      "Ġwhiskers": 7253,
      "Ġcapable": 7254,
      "Ġcapital": 7255,
      "Ġeternity": 7256,
      "AGH": 7257,
      "Ġtongues": 7258,
      "Ġsitu": 7259,
      "ĠAbove": 7260,
      "Ġsorts": 7261,
      "Ġsuperst": 7262,
      "Ġstorms": 7263,
      "Ġunfold": 7264,
      "Ġstarting": 7265,
      "Ġdeceit": 7266,
      "Ġconstant": 7267,
      "Ġrequire": 7268,
      "Ġreigns": 7269,
      "ephyr": 7270,
      "ĠBelieve": 7271,
      "Ġ70": 7272,
      "Ġspoil": 7273,
      "Ġdecline": 7274,
      "ĠRoyalty": 7275,
      "Ġclassic": 7276,
      "Ġislands": 7277,
      "Ġorders": 7278,
      "Ġgazing": 7279,
      "Ġrhymes": 7280,
      "Ġpearls": 7281,
      "Ġcrost": 7282,
      "Ġapplied": 7283,
      "Ġexistence": 7284,
      "Ġsuggested": 7285,
      "Ã¨re": 7286,
      "Ġfolks": 7287,
      "ealous": 7288,
      "Ġdetail": 7289,
      "Ġtrumpets": 7290,
      "Ġingen": 7291,
      "Ġperfume": 7292,
      "ĠFriendship": 7293,
      "ĠLXX": 7294,
      "ĠLiterary": 7295,
      "ĠLiterature": 7296,
      "Ġperceive": 7297,
      "ĠEVIL": 7298,
      "Ġgilded": 7299,
      "ĠBesides": 7300,
      "Ãªte": 7301,
      "ĠGhebers": 7302,
      "ĠGarden": 7303,
      "Ġgovernment": 7304,
      "ĠFortune": 7305,
      "ĠJulia": 7306,
      "Ġdignity": 7307,
      "Ġhusht": 7308,
      "ĠChamber": 7309,
      "Ġdevelopment": 7310,
      "Ġextremely": 7311,
      "Ġthrones": 7312,
      "Ġsettled": 7313,
      "ĠShadowy": 7314,
      "Ġlifeless": 7315,
      "Ġhapless": 7316,
      "ĠCambridge": 7317,
      "Ġcontrast": 7318,
      "Ġburied": 7319,
      "ĠJERUSALEM": 7320,
      "ĠGOVERNOR": 7321,
      "ĠMeanwhile": 7322,
      "ĠSultan": 7323,
      "ĠMovement": 7324,
      "Ġsuffered": 7325,
      "Dr": 7326,
      "EB": 7327,
      "Her": 7328,
      "Hamlet": 7329,
      "IERS": 7330,
      "MAH": 7331,
      "Sp": 7332,
      "Yes": 7333,
      "],": 7334,
      "_!\"": 7335,
      "aur": 7336,
      "ault": 7337,
      "bright": 7338,
      "bub": 7339,
      "car": 7340,
      "dain": 7341,
      "fa": 7342,
      "good": 7343,
      "ihan": 7344,
      "line": 7345,
      "occ": 7346,
      "ped": 7347,
      "ras": 7348,
      "uable": 7349,
      "win": 7350,
      "yet": 7351,
      "Ġice": 7352,
      "Ġta": 7353,
      "Ġtid": 7354,
      "Ġsor": 7355,
      "Ġsan": 7356,
      "reg": 7357,
      "rem": 7358,
      "Ġwag": 7359,
      "Ġwint": 7360,
      "Ġwreathed": 7361,
      "half": 7362,
      "isse": 7363,
      "Ġmil": 7364,
      "itan": 7365,
      "itive": 7366,
      "orum": 7367,
      "enberg": 7368,
      "Ġlion": 7369,
      "Ġlower": 7370,
      "Ġcook": 7371,
      "Ġcord": 7372,
      "Ġcuri": 7373,
      "arry": 7374,
      "Ġpile": 7375,
      "Ġpuff": 7376,
      "Ġposition": 7377,
      "Ġpitch": 7378,
      "ĠTyr": 7379,
      "Ġdamp": 7380,
      "Ġdaring": 7381,
      "ĠAutumn": 7382,
      "ata": 7383,
      "Ġnovel": 7384,
      "Ġnorthern": 7385,
      "Ġthread": 7386,
      "Ġhy": 7387,
      "star": 7388,
      "ĠImper": 7389,
      "----": 7390,
      "Ġgame": 7391,
      "ĠSout": 7392,
      "ĠSorrow": 7393,
      "ĠSIG": 7394,
      "ĠSOLD": 7395,
      "ethe": 7396,
      "etch": 7397,
      "Ġbeating": 7398,
      "rive": 7399,
      "ĠBO": 7400,
      "ĠBell": 7401,
      "ĠBorn": 7402,
      "ĠBob": 7403,
      "ĠOvid": 7404,
      "Ġstem": 7405,
      "Ġstring": 7406,
      "ĠHum": 7407,
      "ĠHind": 7408,
      "idence": 7409,
      "ĠMA": 7410,
      "ĠMOR": 7411,
      "ĠMont": 7412,
      "ĠFear": 7413,
      "ĠFianna": 7414,
      "usive": 7415,
      "ĠLou": 7416,
      "ĠLion": 7417,
      "ĠList": 7418,
      "ĠLive": 7419,
      "ĠLyre": 7420,
      "ĠCoun": 7421,
      "Ġweave": 7422,
      "Ġalludes": 7423,
      "ĠPast": 7424,
      "ĠPol": 7425,
      "Ġmeek": 7426,
      "Ġmeasures": 7427,
      "thur": 7428,
      "ilar": 7429,
      "Ġmyth": 7430,
      "ĠNone": 7431,
      "ĠNap": 7432,
      "ĠDU": 7433,
      "ĠDu": 7434,
      "ĠDist": 7435,
      "ĠDost": 7436,
      "Ġsevent": 7437,
      "ĠEN": 7438,
      "Ġrings": 7439,
      "Ġrash": 7440,
      "Ġspin": 7441,
      "arts": 7442,
      "ula": 7443,
      "uls": 7444,
      "ĠRich": 7445,
      "ĠRest": 7446,
      "ĠRos": 7447,
      "ĠGri": 7448,
      "ĠGaz": 7449,
      "ĠGOOD": 7450,
      "ĠGAZ": 7451,
      "Ġblock": 7452,
      "ephen": 7453,
      "tery": 7454,
      "Ġflings": 7455,
      "odious": 7456,
      "Ġconvent": 7457,
      "Ġconvey": 7458,
      "Their": 7459,
      "Ġshells": 7460,
      "Ġswore": 7461,
      "Ġalarms": 7462,
      "together": 7463,
      "Ġexal": 7464,
      "Ġjob": 7465,
      "orted": 7466,
      "urned": 7467,
      "ĠVan": 7468,
      "ĠVain": 7469,
      "ĠVisc": 7470,
      "agn": 7471,
      "oths": 7472,
      "Ġclust": 7473,
      "Ġcliff": 7474,
      "Ġagony": 7475,
      "neath": 7476,
      "Ġperpet": 7477,
      "Ġbrighten": 7478,
      "Ġbrightly": 7479,
      "Ġheaps": 7480,
      "Ġshouldst": 7481,
      "uda": 7482,
      "Ġgreatly": 7483,
      "eremon": 7484,
      "Ġtwelve": 7485,
      "Ġparted": 7486,
      "Ġ28": 7487,
      "Ġwarning": 7488,
      "these": 7489,
      "Ġeverlasting": 7490,
      "Ġ***": 7491,
      "Ġprest": 7492,
      "Ġremained": 7493,
      "Ġeditions": 7494,
      "ĠSpan": 7495,
      "ĠRef": 7496,
      "Ġnewspap": 7497,
      "ĠWhate": 7498,
      "ĠNora": 7499,
      "ĠAthen": 7500,
      "Ġrests": 7501,
      "ĠBeyond": 7502,
      "Ġpresents": 7503,
      "Ġoverth": 7504,
      "ĠGoddess": 7505,
      "Ġripe": 7506,
      "Ġrival": 7507,
      "Ġoffice": 7508,
      "Ġoffering": 7509,
      "Ġreput": 7510,
      "Ġexpense": 7511,
      "ĠAlps": 7512,
      "ĠAlready": 7513,
      "Ġcurls": 7514,
      "Ġkindling": 7515,
      "Ġconsum": 7516,
      "Ġsinful": 7517,
      "Ġ1898": 7518,
      "Ġbackward": 7519,
      "Ġbrink": 7520,
      "Ġsteel": 7521,
      "Ġhumbly": 7522,
      "vilion": 7523,
      "Ġcoach": 7524,
      "Ġentire": 7525,
      "Ġrelated": 7526,
      "Ġhearing": 7527,
      "Ġinstantly": 7528,
      "Ġcreated": 7529,
      "Ġbeamed": 7530,
      "Ġveiled": 7531,
      "Ġwithered": 7532,
      "ĠXI": 7533,
      "Ġmounted": 7534,
      "ĠUnless": 7535,
      "Ġaskt": 7536,
      "Ġgayly": 7537,
      "two": 7538,
      "ECT": 7539,
      "Ġfreshly": 7540,
      "\"--\"": 7541,
      "Ġstreet": 7542,
      "Ġcorrupt": 7543,
      "Ġhairs": 7544,
      "Ġbreasts": 7545,
      "UME": 7546,
      "Ġfamed": 7547,
      "Ġheroic": 7548,
      "Ġwaken": 7549,
      "Ġdwelling": 7550,
      "Ġadded": 7551,
      "Ġaddressed": 7552,
      "Ġelements": 7553,
      "Ġmarket": 7554,
      "Ġimmense": 7555,
      "ĠExcept": 7556,
      "ĠExpress": 7557,
      "Ġafford": 7558,
      "Ġcenturies": 7559,
      "Ġdevout": 7560,
      "Ġfalsehood": 7561,
      "Ġtowns": 7562,
      "Ġsuperfic": 7563,
      "Ġhurra": 7564,
      "Ġdescribed": 7565,
      "Ġaltered": 7566,
      "Ġtalked": 7567,
      "Ġauthority": 7568,
      "Ġdestined": 7569,
      "Ġrequires": 7570,
      "ĠRomantic": 7571,
      "ĠĠĠĠĠĠĠĠĠĠĠĠĠĠĠĠĠĠĠĠĠĠĠĠĠĠĠĠĠĠĠĠĠĠ": 7572,
      "Ġnecessity": 7573,
      "Ġscenery": 7574,
      "Ġfinest": 7575,
      "ĠDesire": 7576,
      "ĠCountry": 7577,
      "ĠTravels": 7578,
      "Ġenjoyment": 7579,
      "Ġdirection": 7580,
      "Ġdrawing": 7581,
      "Ġsports": 7582,
      "Ġcouple": 7583,
      "Ġbleak": 7584,
      "Ġremarks": 7585,
      "Ġremarkable": 7586,
      "ĠMonarch": 7587,
      "ĠDreams": 7588,
      "Ġspecies": 7589,
      "Ġmurmuring": 7590,
      "Ġburnt": 7591,
      "Ġbillows": 7592,
      "Ġtraveller": 7593,
      "ĠALMED": 7594,
      "Ġvestal": 7595,
      "Ġrules": 7596,
      "Ġambition": 7597,
      "Ġempire": 7598,
      "Ġsufficiently": 7599,
      "Ġrepeat": 7600,
      "Ġpieces": 7601,
      "Ġhighest": 7602,
      "Ġworshipt": 7603,
      "Ġkingdoms": 7604,
      "Ġshepherd": 7605,
      "Ġcounter": 7606,
      "Ġdazzling": 7607,
      "Ġsupplied": 7608,
      "ĠMadame": 7609,
      "Ġparsons": 7610,
      "ĠAccording": 7611,
      "Ġeloquence": 7612,
      "Ġfancies": 7613,
      "ĠDaily": 7614,
      "Ġcontrol": 7615,
      "Ġcoward": 7616,
      "ĠLesb": 7617,
      "ĠPERI": 7618,
      "1905": 7619,
      "EREAGH": 7620,
      "Ġwalks": 7621,
      "Ġinstrument": 7622,
      "Ġmonstrous": 7623,
      "Ġrhythm": 7624,
      "amphlet": 7625,
      "Ġanalys": 7626,
      "Ġvelvet": 7627,
      "Ġurchin": 7628,
      "Ġantiquity": 7629,
      "ĠCASTLEREAGH": 7630,
      "Ġfoliage": 7631,
      "ĠChristopher": 7632,
      "ĠViscount": 7633,
      "ĠALMEDA": 7634,
      "00": 7635,
      "Ar": 7636,
      "BLE": 7637,
      "Cl": 7638,
      "Eds": 7639,
      "Greek": 7640,
      "Hero": 7641,
      "Lord": 7642,
      "Mr": 7643,
      "MENT": 7644,
      "NE": 7645,
      "RAM": 7646,
      "TE": 7647,
      "VER": 7648,
      "ba": 7649,
      "don": 7650,
      "groom": 7651,
      "him": 7652,
      "lay": 7653,
      "look": 7654,
      "loe": 7655,
      "made": 7656,
      "rue": 7657,
      "sal": 7658,
      "tes": 7659,
      "ubs": 7660,
      "ulet": 7661,
      "wind": 7662,
      "yard": 7663,
      "zing": 7664,
      "âĪ": 7665,
      "Ġur": 7666,
      "Ġ90": 7667,
      "Ġteet": 7668,
      "Ġtired": 7669,
      "hee": 7670,
      "Ġaug": 7671,
      "ini": 7672,
      "iner": 7673,
      "inction": 7674,
      "Ġsate": 7675,
      "Ġoar": 7676,
      "Ġwick": 7677,
      "Ġwigs": 7678,
      "erate": 7679,
      "happy": 7680,
      "Ġbumper": 7681,
      "Ġmaint": 7682,
      "Ġmiles": 7683,
      "oura": 7684,
      "itur": 7685,
      "oris": 7686,
      "ona": 7687,
      "onis": 7688,
      "Ġluminous": 7689,
      "edh": 7690,
      "Ġped": 7691,
      "Ġpierce": 7692,
      "ĠTR": 7693,
      "ĠTro": 7694,
      "ĠTimes": 7695,
      "ĠTories": 7696,
      "ĠTroy": 7697,
      "Ġdial": 7698,
      "Ġdye": 7699,
      "ĠAS": 7700,
      "Ġinher": 7701,
      "Ġinquire": 7702,
      "Ġnons": 7703,
      "Ġthigh": 7704,
      "Ġthirty": 7705,
      "Ġthorough": 7706,
      "stant": 7707,
      "Ġheir": 7708,
      "ĠIX": 7709,
      "ĠIl": 7710,
      "ĠWag": 7711,
      "ĠWreath": 7712,
      "ĠWelcome": 7713,
      "ĠSouth": 7714,
      "Ġbends": 7715,
      "Ġhaught": 7716,
      "rier": 7717,
      "rious": 7718,
      "Ġwhore": 7719,
      "urled": 7720,
      "ĠBri": 7721,
      "ĠBuc": 7722,
      "ĠBEL": 7723,
      "ĠBALL": 7724,
      "ĠBIDD": 7725,
      "ĠOde": 7726,
      "Ġstrew": 7727,
      "Ġstoop": 7728,
      "ĠHol": 7729,
      "ĠHold": 7730,
      "ĠHipp": 7731,
      "ĠMod": 7732,
      "ĠFell": 7733,
      "ĠFlet": 7734,
      "ĠFolk": 7735,
      "ĠFÃªte": 7736,
      "Ġforward": 7737,
      "ĠLATE": 7738,
      "ĠCO": 7739,
      "ĠCy": 7740,
      "ĠCam": 7741,
      "ĠCant": 7742,
      "ĠCap": 7743,
      "ĠCec": 7744,
      "ĠCardin": 7745,
      "Ġweap": 7746,
      "ĠĠĠĠĠĠĠĠĠĠ": 7747,
      "ĠPag": 7748,
      "Ġmechan": 7749,
      "those": 7750,
      "thodox": 7751,
      "iliar": 7752,
      "cts": 7753,
      "ighted": 7754,
      "Ġsoothing": 7755,
      "ĠDoth": 7756,
      "Ġselect": 7757,
      "Ġsealed": 7758,
      "overe": 7759,
      "ĠED": 7760,
      "ĠEve": 7761,
      "ĠEver": 7762,
      "alled": 7763,
      "Ġspake": 7764,
      "ĠRh": 7765,
      "ĠRow": 7766,
      "Ġupper": 7767,
      "Ġorthodox": 7768,
      "ĠGave": 7769,
      "ĠGOD": 7770,
      "Ġshake": 7771,
      "ously": 7772,
      "pped": 7773,
      "usts": 7774,
      "ieft": 7775,
      "olved": 7776,
      "Ġflat": 7777,
      "Ġflut": 7778,
      "Ġflag": 7779,
      "Ġflush": 7780,
      "isting": 7781,
      "Ġarise": 7782,
      "Ġshelf": 7783,
      "Ġsheds": 7784,
      "Ġswept": 7785,
      "Ġswarm": 7786,
      "Ġsaf": 7787,
      "Ġsaith": 7788,
      "Ġsaved": 7789,
      "Ġfailed": 7790,
      "ĠOff": 7791,
      "Ġknee": 7792,
      "Ġknelt": 7793,
      "Ġunity": 7794,
      "Ġunblest": 7795,
      "ĠJones": 7796,
      "Ġlighter": 7797,
      "Ġcomment": 7798,
      "Ġgliding": 7799,
      "ĠAsk": 7800,
      "Ġimitation": 7801,
      "Ġroved": 7802,
      "Ġqual": 7803,
      "agger": 7804,
      "Ġfeign": 7805,
      "aret": 7806,
      "pses": 7807,
      "Ġawaked": 7808,
      "Ġscore": 7809,
      "Ġamount": 7810,
      "Ġseeking": 7811,
      "Ġapply": 7812,
      "Ġotherwise": 7813,
      "mson": 7814,
      "Ġleisure": 7815,
      "Ġgrape": 7816,
      "Ġadored": 7817,
      "Ġdismay": 7818,
      "Ġwarlike": 7819,
      "ruption": 7820,
      "Ġpref": 7821,
      "Ġprepar": 7822,
      "Ġ47": 7823,
      "Ġtraitor": 7824,
      "abel": 7825,
      "Ġremind": 7826,
      "Ġcalling": 7827,
      "Ġdreamed": 7828,
      "Ġimpatient": 7829,
      "Ġimpersonal": 7830,
      "Ġgoods": 7831,
      "alem": 7832,
      "Ġplayful": 7833,
      "Ġcontrary": 7834,
      "Ġskin": 7835,
      "Ġdarker": 7836,
      "Ġbreach": 7837,
      "Ġfounded": 7838,
      "ĠHowever": 7839,
      "ĠArg": 7840,
      "Ġrivers": 7841,
      "Ġlawn": 7842,
      "Ġpeep": 7843,
      "Ġreserved": 7844,
      "Ġ1907": 7845,
      "Ġsteeds": 7846,
      "Ġgodly": 7847,
      "Ġhumour": 7848,
      "Ġbroad": 7849,
      "Ġvainly": 7850,
      "Ġcoat": 7851,
      "Ġfrail": 7852,
      "Ġboyhood": 7853,
      "ĠĠĠĠĠĠĠĠĠĠĠĠĠĠĠĠĠĠĠĠĠĠĠĠĠĠĠĠĠĠĠ": 7854,
      "Ġpurcha": 7855,
      "Ġmarried": 7856,
      "ĠPoets": 7857,
      "Ġsadly": 7858,
      "Ġbreathless": 7859,
      "Ġrefuse": 7860,
      "Ġreflection": 7861,
      "Ġcarc": 7862,
      "ĠEnough": 7863,
      "Ġwarmly": 7864,
      "Ġcrimson": 7865,
      "ĠScot": 7866,
      "ĠLeaving": 7867,
      "Ġerud": 7868,
      "Ġbanner": 7869,
      "Ġcrave": 7870,
      "ĠCommons": 7871,
      "OUTH": 7872,
      "Ġneedle": 7873,
      "Ġexpressed": 7874,
      "Ġcircles": 7875,
      "Ġsignific": 7876,
      "Ġcolour": 7877,
      "Ġpaths": 7878,
      "Ġpathway": 7879,
      "Ġspringing": 7880,
      "Ġvolupt": 7881,
      "Ġaffl": 7882,
      "Ġdrive": 7883,
      "ĠPeople": 7884,
      "Ġgrandeur": 7885,
      "Ġobjection": 7886,
      "Ġpenny": 7887,
      "ĠCupids": 7888,
      "ursed": 7889,
      "Ġservant": 7890,
      "Ġelsewhere": 7891,
      "asphe": 7892,
      "ĠPaph": 7893,
      "ĠGrace": 7894,
      "ĠGraces": 7895,
      "Ġinvis": 7896,
      "Ġphilosopher": 7897,
      "ĠTurkey": 7898,
      "Ġvanished": 7899,
      "Ġcombined": 7900,
      "Ġgleaming": 7901,
      "Ġyields": 7902,
      "Ġrises": 7903,
      "ĠGlory": 7904,
      "Ġabsurd": 7905,
      "Ġremembers": 7906,
      "picion": 7907,
      "Ġpromised": 7908,
      "Ġenjoyed": 7909,
      "Ġeffects": 7910,
      "ĠMagan": 7911,
      "Ġcontinue": 7912,
      "ĠGrey": 7913,
      "Ġideal": 7914,
      "ĠMOORE": 7915,
      "Ġstatue": 7916,
      "Ġsuspicion": 7917,
      "ĠCHAR": 7918,
      "Ġhallowed": 7919,
      "OUNT": 7920,
      "Ġdescended": 7921,
      "Ġresembling": 7922,
      "Ġprepared": 7923,
      "ĠTurned": 7924,
      "Ġbalmy": 7925,
      "Ġfestal": 7926,
      "Ġeffort": 7927,
      "ĠBruno": 7928,
      "Ġreclined": 7929,
      "Ġblossom": 7930,
      "ustomed": 7931,
      "Ġneighb": 7932,
      "Ġsimplicity": 7933,
      "Ġminstrels": 7934,
      "Ġsucceeded": 7935,
      "Ġstruggle": 7936,
      "Ġcurtain": 7937,
      "Ġdoctrine": 7938,
      "Ġincrease": 7939,
      "Ġtempest": 7940,
      "Ġshelter": 7941,
      "ĠUnto": 7942,
      "Ġmentions": 7943,
      "Ġcircling": 7944,
      "Ġardent": 7945,
      "Ġwhatsoever": 7946,
      "ĠTransl": 7947,
      "ĠBerm": 7948,
      "Ġpocket": 7949,
      "ĠVirgin": 7950,
      "Ġcondemn": 7951,
      "ĠVeil": 7952,
      "Ġesteem": 7953,
      "Ġshriek": 7954,
      "Ġabstract": 7955,
      "Ġfootsteps": 7956,
      "Ġassembled": 7957,
      "ĠGhost": 7958,
      "Ġnarrow": 7959,
      "ĠJuno": 7960,
      "ĠHappy": 7961,
      "Ġnightingale": 7962,
      "Richardson": 7963,
      "Ġcordial": 7964,
      "Ġcuriosity": 7965,
      "âĪĨ": 7966,
      "Ġteeth": 7967,
      "ĠBIDDY": 7968,
      "ĠFletcher": 7969,
      "Are": 7970,
      "App": 7971,
      "APT": 7972,
      "Aedh": 7973,
      "BIZ": 7974,
      "EAR": 7975,
      "IP": 7976,
      "Int": 7977,
      "ME": 7978,
      "OGU": 7979,
      "THE": 7980,
      "Would": 7981,
      "Whether": 7982,
      "bet": 7983,
      "bra": 7984,
      "bits": 7985,
      "dra": 7986,
      "dling": 7987,
      "drop": 7988,
      "ev": 7989,
      "fit": 7990,
      "fly": 7991,
      "gies": 7992,
      "hical": 7993,
      "iet": 7994,
      "ka": 7995,
      "lers": 7996,
      "och": 7997,
      "ointed": 7998,
      "yd": 7999,
      "Î½": 8000,
      "Ġurn": 8001,
      "Ġtick": 8002,
      "Ġtastes": 8003,
      "Ġax": 8004,
      "Ġsins": 8005,
      "Ġsangu": 8006,
      "Ġtheatre": 8007,
      "Ġolive": 8008,
      "ndent": 8009,
      "Ġbills": 8010,
      "Ġblend": 8011,
      "isman": 8012,
      "Ġmature": 8013,
      "Ġmines": 8014,
      "ouch": 8015,
      "iti": 8016,
      "itimate": 8017,
      "onet": 8018,
      "only": 8019,
      "Ġlur": 8020,
      "Ġloyal": 8021,
      "Ġlakes": 8022,
      "Ġloos": 8023,
      "Ġcollected": 8024,
      "Ġpiety": 8025,
      "ĠTrin": 8026,
      "Ġdar": 8027,
      "Ġdose": 8028,
      "Ġdames": 8029,
      "Ġdumb": 8030,
      "Ġdanced": 8031,
      "Ġtot": 8032,
      "anus": 8033,
      "ĠAri": 8034,
      "ĠAur": 8035,
      "Ġinmost": 8036,
      "Ġni": 8037,
      "Ġnational": 8038,
      "Ġnurse": 8039,
      "omb": 8040,
      "omy": 8041,
      "owl": 8042,
      "leg": 8043,
      "Ġgor": 8044,
      "Ġgout": 8045,
      "Ġgets": 8046,
      "Ġelect": 8047,
      "sels": 8048,
      "ĠSig": 8049,
      "ĠSOR": 8050,
      "ĠSub": 8051,
      "uties": 8052,
      "Ġwhip": 8053,
      "alian": 8054,
      "ura": 8055,
      "ĠBed": 8056,
      "ĠBless": 8057,
      "ĠOther": 8058,
      "ĠOrient": 8059,
      "imble": 8060,
      "ĠHither": 8061,
      "ĠHail": 8062,
      "idents": 8063,
      "ĠMat": 8064,
      "ĠMess": 8065,
      "ĠMine": 8066,
      "ĠMind": 8067,
      "ĠMist": 8068,
      "ĠMeet": 8069,
      "ĠMUS": 8070,
      "ĠFootnote": 8071,
      "ĠFinn": 8072,
      "uscript": 8073,
      "ada": 8074,
      "Ġrele": 8075,
      "Ġreference": 8076,
      "Ġreckon": 8077,
      "ĠLed": 8078,
      "ĠLess": 8079,
      "ĠCf": 8080,
      "ĠCas": 8081,
      "ĠCare": 8082,
      "ĠCamp": 8083,
      "ĠPaint": 8084,
      "ĠProud": 8085,
      "ĠPsy": 8086,
      "Ġsoil": 8087,
      "Ġsoothe": 8088,
      "Ġvary": 8089,
      "ĠNOUR": 8090,
      "ĠEst": 8091,
      "ĠEnt": 8092,
      "ĠExt": 8093,
      "Ġrang": 8094,
      "Ġwash": 8095,
      "ulus": 8096,
      "ĠRod": 8097,
      "ĠRock": 8098,
      "ĠThine": 8099,
      "Ġnecks": 8100,
      "Ġkist": 8101,
      "Ġkilled": 8102,
      "Ġblades": 8103,
      "hereal": 8104,
      "oser": 8105,
      ".\"[": 8106,
      ".\"_": 8107,
      "Ġarrows": 8108,
      "Ġshew": 8109,
      "Ġhadst": 8110,
      "Ġplenty": 8111,
      "ĠInn": 8112,
      "Ġaltogether": 8113,
      "Ġfare": 8114,
      "Ġmach": 8115,
      "Ġmans": 8116,
      "Ġlikely": 8117,
      "Ġjealous": 8118,
      "inkling": 8119,
      "oyage": 8120,
      "ĠAss": 8121,
      "Ġimps": 8122,
      "Ġroves": 8123,
      "ĠHead": 8124,
      "cied": 8125,
      "arer": 8126,
      "Ġclothes": 8127,
      "Ġearliest": 8128,
      "Ġamic": 8129,
      "Ġamaz": 8130,
      "Ġseeks": 8131,
      "Ġenl": 8132,
      "Ġperformed": 8133,
      "Ġpermanent": 8134,
      "Ġapparent": 8135,
      "reams": 8136,
      "ressing": 8137,
      "iously": 8138,
      "Ġdesolate": 8139,
      "Ġadds": 8140,
      "ONT": 8141,
      "Ġtwice": 8142,
      "Ġwarmed": 8143,
      "Ġpreach": 8144,
      "Ġremote": 8145,
      "Ġedge": 8146,
      "Ġdownward": 8147,
      "phis": 8148,
      "ĠReady": 8149,
      "Ġimpro": 8150,
      "Ġimpassion": 8151,
      "Ġimprove": 8152,
      "Ġkeen": 8153,
      "ĠAtt": 8154,
      "forth": 8155,
      "Ġfriendly": 8156,
      "Ġexpire": 8157,
      "Ġcurled": 8158,
      "Ġconsent": 8159,
      "Ġconsidered": 8160,
      "Ġresp": 8161,
      "ĠLetters": 8162,
      "Ġguests": 8163,
      "Ġ1901": 8164,
      "Ġmusical": 8165,
      "Ġsteed": 8166,
      "ĠSwift": 8167,
      "erns": 8168,
      "cribed": 8169,
      "Ġethereal": 8170,
      "earest": 8171,
      "ailed": 8172,
      "oolihan": 8173,
      "Ġrelief": 8174,
      "Ġvernal": 8175,
      "Ġvein": 8176,
      "Ġveils": 8177,
      "ĠVolume": 8178,
      "Ġopened": 8179,
      "Ġputs": 8180,
      "spect": 8181,
      "Ġsimilar": 8182,
      "RIB": 8183,
      "aws": 8184,
      "Ġweeps": 8185,
      "Ġerect": 8186,
      "Ġhorri": 8187,
      "Ġblessing": 8188,
      "Ġblessings": 8189,
      "Ġroseate": 8190,
      "Ġextingu": 8191,
      "Ġbearing": 8192,
      "swick": 8193,
      "Ġinterests": 8194,
      "Ġlordly": 8195,
      "Ġsparkled": 8196,
      "Ġprofit": 8197,
      "Ġessays": 8198,
      "Ġfaithless": 8199,
      "Ġcolor": 8200,
      "Ġvictims": 8201,
      "Ġwakes": 8202,
      "Ġadmiring": 8203,
      "Ġaddition": 8204,
      "Ġpolite": 8205,
      "ĠGreeks": 8206,
      "Ġsensibility": 8207,
      "Ġmarks": 8208,
      "Ġhanging": 8209,
      "Ġlatest": 8210,
      "Ġstronger": 8211,
      "Ġstrongly": 8212,
      "Ġglee": 8213,
      "Ġplanets": 8214,
      "ĠONE": 8215,
      "Ġaltars": 8216,
      "Ġlimited": 8217,
      "Ġportion": 8218,
      "Ġportrait": 8219,
      "Ġtroph": 8220,
      "Ġfighting": 8221,
      "chers": 8222,
      "Ġsirrah": 8223,
      "ĠSongs": 8224,
      "Ġrequired": 8225,
      "Ġvanish": 8226,
      "Ġconditions": 8227,
      "flies": 8228,
      "Ġliberal": 8229,
      "Ġwealthy": 8230,
      "Ġfinish": 8231,
      "Ġsolitary": 8232,
      "ĠTragedy": 8233,
      "Ġdenied": 8234,
      "Ġclaimed": 8235,
      "ĠLooking": 8236,
      "Ġ179": 8237,
      "ĠPatrick": 8238,
      "Ġ1886": 8239,
      "Ġcrowds": 8240,
      "ĠDelhi": 8241,
      "Ġinspiration": 8242,
      "Ġbridegroom": 8243,
      "Ġechoed": 8244,
      "ĠSmall": 8245,
      "erva": 8246,
      "Ġtalent": 8247,
      "Ġtalents": 8248,
      "Ġpolitics": 8249,
      "ĠCallap": 8250,
      "Ġfeathers": 8251,
      "Ġmonarchs": 8252,
      "Ġsuggest": 8253,
      "Ġbillow": 8254,
      "Ġneglected": 8255,
      "Ġknees": 8256,
      "ĠCatholics": 8257,
      "Ġpavilion": 8258,
      "ĠBrunswick": 8259,
      "Ġallegorical": 8260,
      "Ġimmediate": 8261,
      "Ġperformance": 8262,
      "ĠHimself": 8263,
      "Ġmatchless": 8264,
      "Ġpiece": 8265,
      "ABY": 8266,
      "Ġrapture": 8267,
      "Ġshepherds": 8268,
      "ĠGermany": 8269,
      "ĠIllust": 8270,
      "Ġenemy": 8271,
      "ĠSupp": 8272,
      "ĠGolden": 8273,
      "ĠInstead": 8274,
      "Ġmultitude": 8275,
      "ĠMartin": 8276,
      "Ġtorture": 8277,
      "ĠOlympus": 8278,
      "Ġflattering": 8279,
      "Ġspecial": 8280,
      "Ġdiamonds": 8281,
      "ĠFleet": 8282,
      "ĠDiana": 8283,
      "Ġcircumstance": 8284,
      "Ġmesseng": 8285,
      "ĠNEW": 8286,
      "Ġdisgrace": 8287,
      "Ġflowerets": 8288,
      "Ġmourning": 8289,
      "Ġmysterious": 8290,
      "Ġobtain": 8291,
      "Ġenchantment": 8292,
      "Ġsympathy": 8293,
      "Ġprosperous": 8294,
      "Ġbashful": 8295,
      "Ġignor": 8296,
      "ĠAlexander": 8297,
      "adrille": 8298,
      "ĠShamrock": 8299,
      "Ġeclipse": 8300,
      "Ġopposite": 8301,
      "Ġobliged": 8302,
      "Ġphantom": 8303,
      "ĠCeres": 8304,
      "ĠTREBIZ": 8305,
      "ĠRichard": 8306,
      "ĠRevolution": 8307,
      "MAHAL": 8308,
      "ĠImperial": 8309,
      "ĠSOLDIERS": 8310,
      "ĠLouis": 8311,
      "ĠDUKE": 8312,
      "Ġwicked": 8313,
      "Ġnonsense": 8314,
      "Ġhaughty": 8315,
      "ĠBucha": 8316,
      "ĠCecil": 8317,
      "APTAIN": 8318,
      "OGUE": 8319,
      "ĠTrinity": 8320,
      "ĠPsyche": 8321,
      "ĠNOURMAHAL": 8322,
      "Ġimpassioned": 8323,
      ").--": 8324,
      "AW": 8325,
      "Book": 8326,
      "Ere": 8327,
      "Even": 8328,
      "Eng": 8329,
      "Go": 8330,
      "GENT": 8331,
      "KS": 8332,
      "Life": 8333,
      "QU": 8334,
      "Song": 8335,
      "Too": 8336,
      "YM": 8337,
      "both": 8338,
      "bac": 8339,
      "bts": 8340,
      "bury": 8341,
      "bster": 8342,
      "cad": 8343,
      "crit": 8344,
      "din": 8345,
      "days": 8346,
      "dual": 8347,
      "eors": 8348,
      "fast": 8349,
      "fold": 8350,
      "gil": 8351,
      "iat": 8352,
      "jo": 8353,
      "knot": 8354,
      "love": 8355,
      "lies": 8356,
      "mod": 8357,
      "much": 8358,
      "mans": 8359,
      "pul": 8360,
      "song": 8361,
      "uf": 8362,
      "vity": 8363,
      "yer": 8364,
      "ĠÎ": 8365,
      "ĠâĪĨ": 8366,
      "Ġtap": 8367,
      "Ġthaw": 8368,
      "hey": 8369,
      "inian": 8370,
      "Ġsi": 8371,
      "Ġsore": 8372,
      "Ġsine": 8373,
      "Ġsides": 8374,
      "Ġoper": 8375,
      "Ġomn": 8376,
      "Ġwen": 8377,
      "Ġwives": 8378,
      "Ġbub": 8379,
      "Ġfant": 8380,
      "Ġfurious": 8381,
      "Ġmate": 8382,
      "ouched": 8383,
      "itute": 8384,
      "esp": 8385,
      "Ġoffend": 8386,
      "Ġlin": 8387,
      "Ġlain": 8388,
      "Ġcoo": 8389,
      "Ġcrest": 8390,
      "Ġceremon": 8391,
      "Ġdol": 8392,
      "Ġdash": 8393,
      "Ġtost": 8394,
      "ĠAw": 8395,
      "ĠAust": 8396,
      "atr": 8397,
      "Ġthrows": 8398,
      "Ġhit": 8399,
      "Ġhie": 8400,
      "Ġhip": 8401,
      "lement": 8402,
      "Ġelf": 8403,
      "ottle": 8404,
      "ĠWent": 8405,
      "ĠWords": 8406,
      "ĠSur": 8407,
      "ĠSus": 8408,
      "ĠSigh": 8409,
      "ĠSave": 8410,
      "ĠSIR": 8411,
      "ether": 8412,
      "uts": 8413,
      "asured": 8414,
      "rily": 8415,
      "Ġwhirl": 8416,
      "ĠBra": 8417,
      "ĠBore": 8418,
      "ĠBurns": 8419,
      "ĠAndrew": 8420,
      "Ġstim": 8421,
      "Ġstation": 8422,
      "Ġstret": 8423,
      "Ġstanz": 8424,
      "Ġonward": 8425,
      "ĠHat": 8426,
      "ĠHur": 8427,
      "ĠHang": 8428,
      "ĠHume": 8429,
      "ĠHIND": 8430,
      "ĠMil": 8431,
      "ĠMerc": 8432,
      "ĠMorning": 8433,
      "Ġlikes": 8434,
      "ĠFound": 8435,
      "ĠFare": 8436,
      "ushes": 8437,
      "Ġrender": 8438,
      "Ġreasons": 8439,
      "Ġforty": 8440,
      "amour": 8441,
      "Ġyore": 8442,
      "ĠLa": 8443,
      "ĠLam": 8444,
      "ĠLamp": 8445,
      "Ġasks": 8446,
      "ĠCir": 8447,
      "ĠCOM": 8448,
      "ĠCyp": 8449,
      "unc": 8450,
      "Ġdell": 8451,
      "Ġdefect": 8452,
      "Ġnotion": 8453,
      "Ġnotions": 8454,
      "ĠPel": 8455,
      "ĠPity": 8456,
      "ĠPray": 8457,
      "ctors": 8458,
      "Ġsod": 8459,
      "Ġvice": 8460,
      "ĠDance": 8461,
      "ĠDays": 8462,
      "Ġseated": 8463,
      "ĠEnd": 8464,
      "ĠEss": 8465,
      "ĠEmb": 8466,
      "ĠEMP": 8467,
      "ĠEcho": 8468,
      "Ġshin": 8469,
      "Ġrotten": 8470,
      "Ġsped": 8471,
      "andy": 8472,
      "andon": 8473,
      "ulpt": 8474,
      "respond": 8475,
      "Ġblasphe": 8476,
      "iege": 8477,
      "oler": 8478,
      "olation": 8479,
      "Ġconform": 8480,
      "Ġarrow": 8481,
      "Ġarrayed": 8482,
      "Ġplag": 8483,
      "Ġplough": 8484,
      "Ġwhenever": 8485,
      "Ġponder": 8486,
      "ordinary": 8487,
      "ĠYarm": 8488,
      "Ġglut": 8489,
      "ĠVER": 8490,
      "Ġdoves": 8491,
      "Ġdozen": 8492,
      "ĠAsia": 8493,
      "Ġimpl": 8494,
      "Ġroof": 8495,
      "Ġrogues": 8496,
      "Ġquant": 8497,
      "Ġload": 8498,
      "Ġproclaim": 8499,
      "rites": 8500,
      "Ġclosed": 8501,
      "Ġclimb": 8502,
      "EROR": 8503,
      "Ġchur": 8504,
      "Ġchord": 8505,
      "udden": 8506,
      "rint": 8507,
      "Ġleague": 8508,
      "Ġlevel": 8509,
      "clock": 8510,
      "Ġlets": 8511,
      "Ġdisdain": 8512,
      "Ġ1828": 8513,
      "Ġ1827": 8514,
      "Ġslumbers": 8515,
      ",\"[": 8516,
      "ANCE": 8517,
      "ĠOrange": 8518,
      "ĠWebster": 8519,
      "Ġfairly": 8520,
      "reading": 8521,
      "Ġintent": 8522,
      "Ġimpart": 8523,
      "ĠChild": 8524,
      "Ġdeliver": 8525,
      "aughters": 8526,
      "zebub": 8527,
      "Ġbetwixt": 8528,
      "Ġreads": 8529,
      "plendent": 8530,
      "Ġrill": 8531,
      "Ġoffence": 8532,
      "Ġpeer": 8533,
      "Ġpeers": 8534,
      "AME": 8535,
      "Ġcurl": 8536,
      "ĠMarquis": 8537,
      "Ġserpent": 8538,
      "ĠFABLE": 8539,
      "Ġwax": 8540,
      "Ġwaist": 8541,
      "Ġruff": 8542,
      "Ġruby": 8543,
      "Ġbrass": 8544,
      "Ġillumin": 8545,
      "Ġstead": 8546,
      "Ġfollies": 8547,
      "Ġfollowers": 8548,
      "Ġchanges": 8549,
      "white": 8550,
      "Ġ37": 8551,
      "Ġcompelled": 8552,
      "Ġcoast": 8553,
      "Ġcovers": 8554,
      "ublic": 8555,
      "Ġrecom": 8556,
      "Ġdivinity": 8557,
      "Ġinfernal": 8558,
      "Ġmeteor": 8559,
      "Ġmeteors": 8560,
      "Ġrelic": 8561,
      "Ġpurse": 8562,
      "Ġretire": 8563,
      "ropri": 8564,
      "Ġdrums": 8565,
      "ĠBlood": 8566,
      "Ġclean": 8567,
      "Ġclever": 8568,
      "Ġreflected": 8569,
      "Ġstrains": 8570,
      "Ġminor": 8571,
      "ĠClose": 8572,
      "mbles": 8573,
      "Ġident": 8574,
      "maid": 8575,
      "Ġtouching": 8576,
      "Ġfellows": 8577,
      "Ġchildhood": 8578,
      "ounter": 8579,
      "ĠComes": 8580,
      "ucky": 8581,
      "Ġcoral": 8582,
      "ĠTHO": 8583,
      "ĠTHIS": 8584,
      "ACRE": 8585,
      "Ġwooden": 8586,
      "Ġdevilish": 8587,
      "ĠLeuc": 8588,
      "Ġleading": 8589,
      "ĠAdd": 8590,
      "ĠAdmir": 8591,
      "Ġdepend": 8592,
      "Ġvaried": 8593,
      "Ġfounts": 8594,
      "Ġadmit": 8595,
      "......": 8596,
      "ĠPeri": 8597,
      "Ġaffright": 8598,
      "Ġdrift": 8599,
      "Ġdespise": 8600,
      "Ġblushed": 8601,
      "Ġboldly": 8602,
      "Ġunfurled": 8603,
      "Ġdeceived": 8604,
      "Ġpretend": 8605,
      "Ġtenderness": 8606,
      "Ġconstantly": 8607,
      "Ġfaintly": 8608,
      "Ġvanqu": 8609,
      "Ġvanisht": 8610,
      "Ġequival": 8611,
      "Ġcondition": 8612,
      "Ġbattles": 8613,
      "Ġdearer": 8614,
      "Ġtranslated": 8615,
      "Ġparticularly": 8616,
      "Ġopportun": 8617,
      "Ġfeasts": 8618,
      "Ġclaims": 8619,
      "ĠSylla": 8620,
      "Ġdeclare": 8621,
      "Ġtriumphs": 8622,
      "aeus": 8623,
      "ottom": 8624,
      "Ġtroubles": 8625,
      "iversal": 8626,
      "Ġescap": 8627,
      "Ġrealms": 8628,
      "Ġclassical": 8629,
      "Ġpageant": 8630,
      "Ġconcealed": 8631,
      "Ġvirgins": 8632,
      "Ġwooed": 8633,
      "Ġmisses": 8634,
      "Ġvalleys": 8635,
      "Ġtempted": 8636,
      "Ġfrost": 8637,
      "Ġfrozen": 8638,
      "Ġapplause": 8639,
      "volio": 8640,
      "OUND": 8641,
      "Ġspecim": 8642,
      "Ġmurmur": 8643,
      "Ġmedium": 8644,
      "Ġfancied": 8645,
      "ĠMacmill": 8646,
      "ĠEgyptians": 8647,
      "Ġanimals": 8648,
      "Ġquarter": 8649,
      "Ġpossession": 8650,
      "Ġpuzz": 8651,
      "ĠDEAR": 8652,
      "Ġconclude": 8653,
      "Ġinnocence": 8654,
      "Ġambros": 8655,
      "Ġrepeated": 8656,
      "ĠART": 8657,
      "Ġshoots": 8658,
      "ĠWalter": 8659,
      "ĠChancellor": 8660,
      "pheus": 8661,
      "Ġmentioned": 8662,
      "Ġpreferred": 8663,
      "Ġtuft": 8664,
      "Ġlifted": 8665,
      "Ġpotent": 8666,
      "ĠBallad": 8667,
      "ĠBritain": 8668,
      "ĠBritish": 8669,
      "Ġcontemporaries": 8670,
      "Ġdisplayed": 8671,
      "ĠGheber": 8672,
      "ĠGardens": 8673,
      "Ġventure": 8674,
      "Ġexhibit": 8675,
      "ĠFergus": 8676,
      "ĠFountain": 8677,
      "Ġdramatist": 8678,
      "standing": 8679,
      "Ġrichest": 8680,
      "ĠFitz": 8681,
      "Ġsavage": 8682,
      "Ġquestions": 8683,
      "ĠJOHN": 8684,
      "Ġscheme": 8685,
      "Ġconjurer": 8686,
      "ĠSummer": 8687,
      "ĠFalse": 8688,
      "ISMUND": 8689,
      "Sweet": 8690,
      "ĠCorinna": 8691,
      "Ġconsequence": 8692,
      "Ġcups": 8693,
      "ĠRussell": 8694,
      "ĠRector": 8695,
      "ĠVOLUME": 8696,
      "Ġmimic": 8697,
      "Ġbereft": 8698,
      "Ġintroduced": 8699,
      "ĠSIGISMUND": 8700,
      "ĠBALLAD": 8701,
      "Ġvoluptuous": 8702,
      "Appendix": 8703,
      "ĠTREBIZON": 8704,
      "ĠBucharia": 8705,
      "ĠEMPEROR": 8706,
      "ĠYarmouth": 8707,
      "ĠMacmillan": 8708,
      "54": 8709,
      "?[": 8710,
      "DCC": 8711,
      "EP": 8712,
      "Han": 8713,
      "IE": 8714,
      "Pl": 8715,
      "Pop": 8716,
      "RESS": 8717,
      "Sam": 8718,
      "Than": 8719,
      "TIS": 8720,
      "UP": 8721,
      "Upon": 8722,
      "VID": 8723,
      "Ye": 8724,
      "ZEB": 8725,
      "_?": 8726,
      "aci": 8727,
      "bro": 8728,
      "bound": 8729,
      "boy": 8730,
      "bearing": 8731,
      "cra": 8732,
      "dos": 8733,
      "eat": 8734,
      "far": 8735,
      "gor": 8736,
      "gon": 8737,
      "gers": 8738,
      "gust": 8739,
      "gian": 8740,
      "hum": 8741,
      "ients": 8742,
      "iÃ¨re": 8743,
      "know": 8744,
      "lv": 8745,
      "lain": 8746,
      "mus": 8747,
      "nest": 8748,
      "nge": 8749,
      "numbered": 8750,
      "ois": 8751,
      "pro": 8752,
      "pone": 8753,
      "rings": 8754,
      "rans": 8755,
      "rases": 8756,
      "sues": 8757,
      "said": 8758,
      "td": 8759,
      "tre": 8760,
      "uit": 8761,
      "uzz": 8762,
      "were": 8763,
      "Ġicy": 8764,
      "Ġtire": 8765,
      "Ġavo": 8766,
      "inc": 8767,
      "inies": 8768,
      "Ġsixt": 8769,
      "Ġsainted": 8770,
      "Ġomitted": 8771,
      "Ġwink": 8772,
      "Ġwasted": 8773,
      "erves": 8774,
      "Ġbul": 8775,
      "Ġbade": 8776,
      "Ġbread": 8777,
      "Ġbrown": 8778,
      "Ġbowed": 8779,
      "Ġbask": 8780,
      "Ġfri": 8781,
      "Ġfiction": 8782,
      "Ġmud": 8783,
      "ithe": 8784,
      "itus": 8785,
      "ese": 8786,
      "orm": 8787,
      "orter": 8788,
      "onard": 8789,
      "Ġles": 8790,
      "Ġlod": 8791,
      "Ġlulled": 8792,
      "Ġlucid": 8793,
      "Ġcave": 8794,
      "arily": 8795,
      "Ġpan": 8796,
      "Ġpier": 8797,
      "Ġpyram": 8798,
      "ĠTW": 8799,
      "ĠTart": 8800,
      "Ġdances": 8801,
      "Ġdrest": 8802,
      "Ġhom": 8803,
      "ston": 8804,
      "Ġheap": 8805,
      "Ġgrin": 8806,
      "ĠWild": 8807,
      "ĠWilt": 8808,
      "ĠWaft": 8809,
      "ĠWITH": 8810,
      "ĠShan": 8811,
      "ĠScri": 8812,
      "ĠServ": 8813,
      "ĠSOME": 8814,
      "ĠSudden": 8815,
      "iron": 8816,
      "Ġbeer": 8817,
      "Ġhay": 8818,
      "asia": 8819,
      "rims": 8820,
      "riads": 8821,
      "urgh": 8822,
      "urday": 8823,
      "ĠBal": 8824,
      "ĠBill": 8825,
      "ĠBox": 8826,
      "ĠTherid": 8827,
      "ĠOcean": 8828,
      "ĠOVID": 8829,
      "rad": 8830,
      "Ġsting": 8831,
      "Ġstout": 8832,
      "Ġstare": 8833,
      "Ġstew": 8834,
      "ional": 8835,
      "ĠHost": 8836,
      "ĠHUM": 8837,
      "ĠHoolihan": 8838,
      "Ġissu": 8839,
      "ĠMis": 8840,
      "ĠMing": 8841,
      "ĠMDCC": 8842,
      "ĠFore": 8843,
      "ĠFour": 8844,
      "ĠFind": 8845,
      "ĠFive": 8846,
      "ĠField": 8847,
      "rops": 8848,
      "Ġreject": 8849,
      "Ġrenew": 8850,
      "aman": 8851,
      "Ġyoke": 8852,
      "ĠLot": 8853,
      "ĠLie": 8854,
      "ĠLane": 8855,
      "ĠLtd": 8856,
      "Ġashes": 8857,
      "Ġasunder": 8858,
      "ĠCong": 8859,
      "ĠCOR": 8860,
      "ĠCock": 8861,
      "ĠCertain": 8862,
      "ĠCAPTAIN": 8863,
      "oof": 8864,
      "Ġdefe": 8865,
      "ĠPan": 8866,
      "ĠPra": 8867,
      "ĠProm": 8868,
      "ĠPall": 8869,
      "ĠPAR": 8870,
      "ĠPLA": 8871,
      "ĠPilg": 8872,
      "Ġmell": 8873,
      "ilful": 8874,
      "ilities": 8875,
      "Ġvist": 8876,
      "ĠDam": 8877,
      "ĠDuring": 8878,
      "ĠDAY": 8879,
      "Ġsepul": 8880,
      "ĠEm": 8881,
      "ĠEyes": 8882,
      "ĠEllen": 8883,
      "Ġshift": 8884,
      "Ġrite": 8885,
      "Ġratt": 8886,
      "venient": 8887,
      "Ġanon": 8888,
      "Ġspear": 8889,
      "Ġspend": 8890,
      "Ġsprite": 8891,
      "ulates": 8892,
      "ĠThinking": 8893,
      "ĠGal": 8894,
      "Ġkit": 8895,
      "eling": 8896,
      "opa": 8897,
      "ateur": 8898,
      "Ġplat": 8899,
      "Ġfails": 8900,
      "Ġmanly": 8901,
      "Ġmanuscript": 8902,
      "Ġexcl": 8903,
      "Ġpole": 8904,
      "Ġpointed": 8905,
      "Ġunworthy": 8906,
      "Ġthereof": 8907,
      "Ġglo": 8908,
      "Ġglows": 8909,
      "Ġgloss": 8910,
      "ĠVes": 8911,
      "ĠVal": 8912,
      "ĠVine": 8913,
      "ĠVoice": 8914,
      "ivered": 8915,
      "Ġwilling": 8916,
      "Ġusing": 8917,
      "Ġquot": 8918,
      "Ġquenched": 8919,
      "Ġlovest": 8920,
      "Ġprospect": 8921,
      "Ġclasp": 8922,
      "acle": 8923,
      "acred": 8924,
      "Ġawak": 8925,
      "Ġthanks": 8926,
      "Ġraven": 8927,
      "Ġchose": 8928,
      "uds": 8929,
      "ĠStory": 8930,
      "INCE": 8931,
      "Ġleather": 8932,
      "Ġgradu": 8933,
      "Ġgradual": 8934,
      "Ġartists": 8935,
      "ĠKeny": 8936,
      "ĠKyd": 8937,
      "Ġadop": 8938,
      "Ġlasts": 8939,
      "Ġtwin": 8940,
      "Ġdiscl": 8941,
      "Ġ1890": 8942,
      "Ġ26": 8943,
      "Ġsloth": 8944,
      "ignant": 8945,
      "ability": 8946,
      "Ġremove": 8947,
      "Ġremoved": 8948,
      "Ġdownright": 8949,
      "ARA": 8950,
      "Ġmob": 8951,
      "Ġmoist": 8952,
      "ORUS": 8953,
      "Ġharsh": 8954,
      ".\"--\"": 8955,
      "Ġwrites": 8956,
      "Ġdarkly": 8957,
      "ships": 8958,
      "ĠTherefore": 8959,
      "Ġrestore": 8960,
      "ĠBeg": 8961,
      "ictions": 8962,
      "Ġrib": 8963,
      "Ġriot": 8964,
      "rete": 8965,
      "Ġhappened": 8966,
      "interest": 8967,
      "Thro": 8968,
      "ĠAlthough": 8969,
      "ĠAnn": 8970,
      "Ġkindle": 8971,
      "Ġkindled": 8972,
      "Ġconsist": 8973,
      "Ġtreason": 8974,
      "Ġcheap": 8975,
      "Ġ1891": 8976,
      "Ġseraph": 8977,
      "Ġwaits": 8978,
      "âĢĿ;": 8979,
      "ĠNotes": 8980,
      "ĠShine": 8981,
      "Ġguides": 8982,
      "Ġattitude": 8983,
      "Ġmusk": 8984,
      "Ġsteady": 8985,
      "Ġbloods": 8986,
      "Ġaccustomed": 8987,
      "Ġbrooks": 8988,
      "Ġvoid": 8989,
      "ICH": 8990,
      "ICAL": 8991,
      "whose": 8992,
      "Ġfearless": 8993,
      "Ġcomposed": 8994,
      "Ġsupper": 8995,
      "Ġentered": 8996,
      "Ġdivide": 8997,
      "Ġsnows": 8998,
      "IRD": 8999,
      "Ġsummons": 9000,
      "Ġhandsome": 9001,
      "Ġcareful": 9002,
      "change": 9003,
      "Ġwitchery": 9004,
      "Ġmonument": 9005,
      "aval": 9006,
      "ĠThanks": 9007,
      "Ġrefer": 9008,
      "Ġputting": 9009,
      "ggs": 9010,
      "Ġasking": 9011,
      "ALD": 9012,
      "mblance": 9013,
      "Ġcommend": 9014,
      "Ġthrice": 9015,
      "Ġactually": 9016,
      "Ġconfl": 9017,
      "Ġconfirm": 9018,
      "Ġgenerations": 9019,
      "Ġbanners": 9020,
      "Ġwisht": 9021,
      "ĠPlut": 9022,
      "ETH": 9023,
      "Ġmovements": 9024,
      "ĠSeeing": 9025,
      "\"--_": 9026,
      "ĠComm": 9027,
      "Ġincense": 9028,
      "Ġindebted": 9029,
      "Ġextent": 9030,
      "Ġextract": 9031,
      "Ġcorruption": 9032,
      "Ġcorrespond": 9033,
      "Ġforgets": 9034,
      "Ġconquest": 9035,
      "Ġnatur": 9036,
      "Ġdecide": 9037,
      "Ġforever": 9038,
      "ĠLeg": 9039,
      "ipped": 9040,
      "Ġbosoms": 9041,
      "Ġodds": 9042,
      "Ġadmitted": 9043,
      "Ġclosely": 9044,
      "Ġlengthen": 9045,
      "Ġ200": 9046,
      "ĠFRAG": 9047,
      "Ġbreeches": 9048,
      "Ġvaluable": 9049,
      "Ġpraises": 9050,
      "Ġdevotion": 9051,
      "Ġphrases": 9052,
      "Ġfloats": 9053,
      "Ġdefinite": 9054,
      "Ġsends": 9055,
      "Ġservile": 9056,
      "ĠPapa": 9057,
      "ĠPaper": 9058,
      "ĠPapist": 9059,
      "Ġcourtesy": 9060,
      "vided": 9061,
      "Ġfragrance": 9062,
      "Ġhurt": 9063,
      "velled": 9064,
      "Ġstartled": 9065,
      "Ġmorality": 9066,
      "Ġjoined": 9067,
      "Ġenchanting": 9068,
      "Ġpictured": 9069,
      "Ġconstruct": 9070,
      "Ġdestiny": 9071,
      "Ġrequest": 9072,
      "Ġsolely": 9073,
      "Ġcasement": 9074,
      "Ġringlets": 9075,
      "Ġcombination": 9076,
      ".âĢĻ_": 9077,
      "Ġhundreds": 9078,
      "Ġimmortality": 9079,
      "ĠEdition": 9080,
      "ĠBeloved": 9081,
      "Ġsolid": 9082,
      "Ġcrush": 9083,
      "EMS": 9084,
      "Ġcouch": 9085,
      "Ġprint": 9086,
      "Ġcontinued": 9087,
      "Ġposter": 9088,
      "ĠMemphis": 9089,
      "ĠGenii": 9090,
      "ĠCHORUS": 9091,
      "tico": 9092,
      "Ġtalisman": 9093,
      "ĠMiddle": 9094,
      "Ġ----,": 9095,
      "Ġhusbands": 9096,
      "Ġexperien": 9097,
      "Ġhoary": 9098,
      "ĠCalled": 9099,
      "Ġreveal": 9100,
      "ĠEpistle": 9101,
      "Ġexplain": 9102,
      "Ġdescending": 9103,
      "Ġoccasionally": 9104,
      "ĠMountain": 9105,
      "ĠREGENT": 9106,
      "Ġproductions": 9107,
      "Ġcorner": 9108,
      "Ġresemble": 9109,
      "Ġexcuse": 9110,
      "Ġmockery": 9111,
      "Ġtravelling": 9112,
      "Ġmiracle": 9113,
      "Ġmiraculous": 9114,
      "unningham": 9115,
      "oirs": 9116,
      "ynth": 9117,
      "Ġfixed": 9118,
      "ĠSHALL": 9119,
      "ĠWomen": 9120,
      "Ġeagle": 9121,
      "Ġrainbows": 9122,
      "Ġpledged": 9123,
      "Ġaffections": 9124,
      "Ġbelonged": 9125,
      "Ġmaterials": 9126,
      "Ġbigot": 9127,
      "Ġlapse": 9128,
      "Ġlyrical": 9129,
      "Ġgroups": 9130,
      "Ġsupplies": 9131,
      "ĠBenvolio": 9132,
      "Ġquivering": 9133,
      "Ġparson": 9134,
      "Ġevidence": 9135,
      "Ġarticle": 9136,
      "Ġviolent": 9137,
      "Ġ.......": 9138,
      "Ġblazing": 9139,
      "Ġscented": 9140,
      "Ġdisturb": 9141,
      "OCR": 9142,
      "hearted": 9143,
      "Ġdishon": 9144,
      "thagh": 9145,
      "ĠPalace": 9146,
      "ĠRobin": 9147,
      "Ġdramatists": 9148,
      "Ġimaginative": 9149,
      "Ġvicer": 9150,
      "Ġextraordinary": 9151,
      "ĠJehan": 9152,
      "ĠVictory": 9153,
      "Ġemperor": 9154,
      "Ġeducation": 9155,
      "Ġexercise": 9156,
      "Ġcompanions": 9157,
      "Ġperception": 9158,
      "Ġintensity": 9159,
      "Ġcomparison": 9160,
      "Ġadvantage": 9161,
      "Ġfifty": 9162,
      "Ġgrateful": 9163,
      "ĠRhymers": 9164,
      "ependent": 9165,
      "Ġprostrate": 9166,
      "Ġreplied": 9167,
      "Ġunholy": 9168,
      "Ġwintry": 9169,
      "ĠSouthey": 9170,
      "ĠWagner": 9171,
      "ĠBELZEB": 9172,
      "Ġerudition": 9173,
      "Ġsanguine": 9174,
      "ĠSORIA": 9175,
      "ĠMistress": 9176,
      "Ġvarying": 9177,
      "ĠInnisf": 9178,
      "ĠCallapine": 9179,
      "ĠAdmiral": 9180,
      "ĠTheridamas": 9181,
      "Ġsepulch": 9182,
      "ĠKenyon": 9183,
      "ĠBELZEBUB": 9184,
      "\".": 9185,
      "\").": 9186,
      "88": 9187,
      ":\"": 9188,
      "AKE": 9189,
      "Bl": 9190,
      "Con": 9191,
      "Can": 9192,
      "Chan": 9193,
      "DIN": 9194,
      "Et": 9195,
      "Farewell": 9196,
      "Ha": 9197,
      "Hath": 9198,
      "IBER": 9199,
      "Le": 9200,
      "May": 9201,
      "Mem": 9202,
      "Mull": 9203,
      "Ne": 9204,
      "Nay": 9205,
      "NING": 9206,
      "Note": 9207,
      "REN": 9208,
      "TLE": 9209,
      "Vol": 9210,
      "YN": 9211,
      "aus": 9212,
      "aise": 9213,
      "aigne": 9214,
      "aiah": 9215,
      "bal": 9216,
      "bishop": 9217,
      "cur": 9218,
      "crates": 9219,
      "dleton": 9220,
      "first": 9221,
      "father": 9222,
      "iad": 9223,
      "iastic": 9224,
      "kward": 9225,
      "lot": 9226,
      "lock": 9227,
      "mind": 9228,
      "mak": 9229,
      "mering": 9230,
      "ni": 9231,
      "nant": 9232,
      "ping": 9233,
      "pot": 9234,
      "pid": 9235,
      "pap": 9236,
      "pence": 9237,
      "pides": 9238,
      "rons": 9239,
      "ties": 9240,
      "uft": 9241,
      "ugg": 9242,
      "wd": 9243,
      "wart": 9244,
      "wick": 9245,
      "yrin": 9246,
      "Ã´": 9247,
      "Î±": 9248,
      "Ġil": 9249,
      "Ġire": 9250,
      "Ġtaint": 9251,
      "Ġtint": 9252,
      "Ġay": 9253,
      "Ġautumn": 9254,
      "Ġarose": 9255,
      "Ġsires": 9256,
      "Ġscient": 9257,
      "Ġoak": 9258,
      "Ġope": 9259,
      "Ġwreat": 9260,
      "Ġware": 9261,
      "erry": 9262,
      "erning": 9263,
      "has": 9264,
      "hand": 9265,
      "Ġbath": 9266,
      "Ġbag": 9267,
      "Ġbits": 9268,
      "Ġbishop": 9269,
      "Ġfug": 9270,
      "Ġfisher": 9271,
      "itled": 9272,
      "ena": 9273,
      "Ġlic": 9274,
      "Ġlid": 9275,
      "Ġlun": 9276,
      "Ġlant": 9277,
      "Ġcot": 9278,
      "Ġcong": 9279,
      "Ġcens": 9280,
      "Ġcases": 9281,
      "arse": 9282,
      "armed": 9283,
      "arned": 9284,
      "Ġpil": 9285,
      "Ġpest": 9286,
      "Ġpound": 9287,
      "Ġpig": 9288,
      "Ġpace": 9289,
      "Ġpounds": 9290,
      "ĠTham": 9291,
      "ĠTec": 9292,
      "ĠTourne": 9293,
      "Ġdame": 9294,
      "Ġdiver": 9295,
      "Ġtoler": 9296,
      "aned": 9297,
      "anim": 9298,
      "anley": 9299,
      "ĠAF": 9300,
      "ĠAuth": 9301,
      "Ġinse": 9302,
      "atched": 9303,
      "Ġnay": 9304,
      "Ġnour": 9305,
      "Ġnurs": 9306,
      "Ġnumer": 9307,
      "Ġthra": 9308,
      "oman": 9309,
      "Ġhed": 9310,
      "Ġheare": 9311,
      "vered": 9312,
      "Ġgilt": 9313,
      "Ġgulf": 9314,
      "Ġeating": 9315,
      "icular": 9316,
      "ĠWine": 9317,
      "ĠWalk": 9318,
      "ĠSit": 9319,
      "ĠSon": 9320,
      "ĠSold": 9321,
      "ĠSER": 9322,
      "ĠSax": 9323,
      "ĠScript": 9324,
      "ĠSovere": 9325,
      "ette": 9326,
      "Ġbeats": 9327,
      "Ġhaply": 9328,
      "Ġwhilst": 9329,
      "ĠBath": 9330,
      "ĠBrought": 9331,
      "ĠBird": 9332,
      "rade": 9333,
      "Ġstays": 9334,
      "Ġstamp": 9335,
      "ioned": 9336,
      "ĠHill": 9337,
      "ĠMix": 9338,
      "ĠMaking": 9339,
      "Ġlily": 9340,
      "Ġliver": 9341,
      "ĠFresh": 9342,
      "usalem": 9343,
      "amor": 9344,
      "ĠLone": 9345,
      "ĠLines": 9346,
      "ĠLoc": 9347,
      "ĠCic": 9348,
      "ĠCent": 9349,
      "ĠCart": 9350,
      "ĠCalm": 9351,
      "ĠCurse": 9352,
      "Ġweaves": 9353,
      "uned": 9354,
      "ĠPuff": 9355,
      "ĠPamphlet": 9356,
      "thor": 9357,
      "thought": 9358,
      "Ġvices": 9359,
      "ĠNine": 9360,
      "Ġseats": 9361,
      "Ġseized": 9362,
      "ĠEuri": 9363,
      "Ġanec": 9364,
      "Ġsull": 9365,
[...]
